{
  "version": "1.0",
  "truncation": null,
  "padding": null,
  "added_tokens": [
    {
      "id": 0,
      "content": "[UNK]",
      "single_word": false,
      "lstrip": false,
      "rstrip": false,
      "normalized": false,
      "special": true
    },
    {
      "id": 1,
      "content": "[CLS]",
      "single_word": false,
      "lstrip": false,
      "rstrip": false,
      "normalized": false,
      "special": true
    },
    {
      "id": 2,
      "content": "[SEP]",
      "single_word": false,
      "lstrip": false,
      "rstrip": false,
      "normalized": false,
      "special": true
    },
    {
      "id": 3,
      "content": "[PAD]",
      "single_word": false,
      "lstrip": false,
      "rstrip": false,
      "normalized": false,
      "special": true
    },
    {
      "id": 4,
      "content": "[MASK]",
      "single_word": false,
      "lstrip": false,
      "rstrip": false,
      "normalized": false,
      "special": true
    }
  ],
  "normalizer": null,
  "pre_tokenizer": {
    "type": "Whitespace"
  },
  "post_processor": null,
  "decoder": null,
  "model": {
    "type": "BPE",
    "dropout": null,
    "unk_token": "[UNK]",
    "continuing_subword_prefix": null,
    "end_of_word_suffix": null,
    "fuse_unk": false,
    "byte_fallback": false,
    "ignore_merges": false,
    "vocab": {
      "[UNK]": 0,
      "[CLS]": 1,
      "[SEP]": 2,
      "[PAD]": 3,
      "[MASK]": 4,
      "!": 5,
      "\"": 6,
      "#": 7,
      "$": 8,
      "%": 9,
      "&": 10,
      "'": 11,
      "(": 12,
      ")": 13,
      "*": 14,
      "+": 15,
      ",": 16,
      "-": 17,
      ".": 18,
      "/": 19,
      "0": 20,
      "1": 21,
      "2": 22,
      "3": 23,
      "4": 24,
      "5": 25,
      "6": 26,
      "7": 27,
      "8": 28,
      "9": 29,
      ":": 30,
      ";": 31,
      "<": 32,
      "=": 33,
      ">": 34,
      "?": 35,
      "@": 36,
      "A": 37,
      "B": 38,
      "C": 39,
      "D": 40,
      "E": 41,
      "F": 42,
      "G": 43,
      "H": 44,
      "I": 45,
      "J": 46,
      "K": 47,
      "L": 48,
      "M": 49,
      "N": 50,
      "O": 51,
      "P": 52,
      "Q": 53,
      "R": 54,
      "S": 55,
      "T": 56,
      "U": 57,
      "V": 58,
      "W": 59,
      "X": 60,
      "Y": 61,
      "Z": 62,
      "[": 63,
      "\\": 64,
      "]": 65,
      "^": 66,
      "_": 67,
      "`": 68,
      "a": 69,
      "b": 70,
      "c": 71,
      "d": 72,
      "e": 73,
      "f": 74,
      "g": 75,
      "h": 76,
      "i": 77,
      "j": 78,
      "k": 79,
      "l": 80,
      "m": 81,
      "n": 82,
      "o": 83,
      "p": 84,
      "q": 85,
      "r": 86,
      "s": 87,
      "t": 88,
      "u": 89,
      "v": 90,
      "w": 91,
      "x": 92,
      "y": 93,
      "z": 94,
      "{": 95,
      "|": 96,
      "}": 97,
      "~": 98,
      "«": 99,
      "­": 100,
      "°": 101,
      "±": 102,
      "²": 103,
      "³": 104,
      "´": 105,
      "µ": 106,
      "·": 107,
      "»": 108,
      "½": 109,
      "À": 110,
      "Á": 111,
      "Å": 112,
      "Æ": 113,
      "Ç": 114,
      "É": 115,
      "Õ": 116,
      "Ö": 117,
      "×": 118,
      "Ø": 119,
      "Ü": 120,
      "ß": 121,
      "à": 122,
      "á": 123,
      "â": 124,
      "ã": 125,
      "ä": 126,
      "å": 127,
      "æ": 128,
      "ç": 129,
      "è": 130,
      "é": 131,
      "ê": 132,
      "ë": 133,
      "ì": 134,
      "í": 135,
      "î": 136,
      "ï": 137,
      "ñ": 138,
      "ó": 139,
      "ô": 140,
      "ö": 141,
      "÷": 142,
      "ø": 143,
      "ú": 144,
      "ü": 145,
      "ý": 146,
      "ā": 147,
      "ă": 148,
      "ć": 149,
      "Ĉ": 150,
      "ĉ": 151,
      "Č": 152,
      "đ": 153,
      "ē": 154,
      "ĕ": 155,
      "ě": 156,
      "Ĝ": 157,
      "ĝ": 158,
      "ğ": 159,
      "Ĥ": 160,
      "ĥ": 161,
      "ħ": 162,
      "ī": 163,
      "İ": 164,
      "ı": 165,
      "Ĵ": 166,
      "ĵ": 167,
      "ŀ": 168,
      "ł": 169,
      "ō": 170,
      "ŏ": 171,
      "Œ": 172,
      "œ": 173,
      "ř": 174,
      "Ŝ": 175,
      "ŝ": 176,
      "Ş": 177,
      "ş": 178,
      "ū": 179,
      "Ŭ": 180,
      "ŭ": 181,
      "Ž": 182,
      "ž": 183,
      "ǣ": 184,
      "ɛ": 185,
      "ɝ": 186,
      "ɪ": 187,
      "ʻ": 188,
      "ʾ": 189,
      "ˇ": 190,
      "ˈ": 191,
      "ˋ": 192,
      "ː": 193,
      "˘": 194,
      "˙": 195,
      "˚": 196,
      "˝": 197,
      "Ͱ": 198,
      "ͱ": 199,
      "Ͳ": 200,
      "ͳ": 201,
      "Ͷ": 202,
      "ͷ": 203,
      "Α": 204,
      "Γ": 205,
      "Δ": 206,
      "Ε": 207,
      "Ζ": 208,
      "Θ": 209,
      "Ι": 210,
      "Κ": 211,
      "Λ": 212,
      "Ο": 213,
      "Π": 214,
      "Σ": 215,
      "Τ": 216,
      "Φ": 217,
      "Ω": 218,
      "ά": 219,
      "ή": 220,
      "ί": 221,
      "α": 222,
      "β": 223,
      "γ": 224,
      "δ": 225,
      "ε": 226,
      "η": 227,
      "θ": 228,
      "ι": 229,
      "κ": 230,
      "λ": 231,
      "μ": 232,
      "ν": 233,
      "ο": 234,
      "π": 235,
      "ρ": 236,
      "ς": 237,
      "σ": 238,
      "τ": 239,
      "υ": 240,
      "φ": 241,
      "χ": 242,
      "ψ": 243,
      "ω": 244,
      "ό": 245,
      "ύ": 246,
      "ώ": 247,
      "ϕ": 248,
      "Ϙ": 249,
      "ϙ": 250,
      "Ϛ": 251,
      "ϛ": 252,
      "Ϝ": 253,
      "ϝ": 254,
      "Ϟ": 255,
      "ϟ": 256,
      "Ϡ": 257,
      "ϡ": 258,
      "Ϸ": 259,
      "ϸ": 260,
      "Ϻ": 261,
      "ϻ": 262,
      "А": 263,
      "В": 264,
      "Г": 265,
      "Д": 266,
      "И": 267,
      "К": 268,
      "Л": 269,
      "М": 270,
      "Н": 271,
      "О": 272,
      "Р": 273,
      "С": 274,
      "У": 275,
      "Ч": 276,
      "Ш": 277,
      "Ю": 278,
      "а": 279,
      "б": 280,
      "в": 281,
      "г": 282,
      "д": 283,
      "е": 284,
      "ж": 285,
      "з": 286,
      "и": 287,
      "й": 288,
      "к": 289,
      "л": 290,
      "м": 291,
      "н": 292,
      "о": 293,
      "п": 294,
      "р": 295,
      "с": 296,
      "т": 297,
      "у": 298,
      "х": 299,
      "ц": 300,
      "ч": 301,
      "ш": 302,
      "ы": 303,
      "э": 304,
      "я": 305,
      "ё": 306,
      "ї": 307,
      "ב": 308,
      "י": 309,
      "ע": 310,
      "ר": 311,
      "ת": 312,
      "أ": 313,
      "ا": 314,
      "ب": 315,
      "ة": 316,
      "ج": 317,
      "د": 318,
      "ر": 319,
      "ش": 320,
      "ع": 321,
      "ل": 322,
      "م": 323,
      "ن": 324,
      "ه": 325,
      "و": 326,
      "ي": 327,
      "ُ": 328,
      "پ": 329,
      "ی": 330,
      "ठ": 331,
      "द": 332,
      "न": 333,
      "म": 334,
      "र": 335,
      "ह": 336,
      "ा": 337,
      "ि": 338,
      "ी": 339,
      "्": 340,
      "ং": 341,
      "ব": 342,
      "ল": 343,
      "া": 344,
      "ਜ": 345,
      "ਪ": 346,
      "ਬ": 347,
      "ਾ": 348,
      "ੀ": 349,
      "ੰ": 350,
      "த": 351,
      "ம": 352,
      "ழ": 353,
      "ி": 354,
      "்": 355,
      "గ": 356,
      "త": 357,
      "ల": 358,
      "ు": 359,
      "ె": 360,
      "ᄃ": 361,
      "ᄌ": 362,
      "ᄒ": 363,
      "ᆞ": 364,
      "ᆡ": 365,
      "ᆫ": 366,
      "ṓ": 367,
      "ạ": 368,
      "ấ": 369,
      "ế": 370,
      "ệ": 371,
      "ộ": 372,
      "ἀ": 373,
      "ἄ": 374,
      "Ἀ": 375,
      "ἐ": 376,
      "ἱ": 377,
      "ἵ": 378,
      "‑": 379,
      "–": 380,
      "—": 381,
      "―": 382,
      "‘": 383,
      "’": 384,
      "“": 385,
      "”": 386,
      "„": 387,
      "†": 388,
      "•": 389,
      "․": 390,
      "…": 391,
      "‪": 392,
      "‬": 393,
      "′": 394,
      "※": 395,
      "₂": 396,
      "₃": 397,
      "₄": 398,
      "℃": 399,
      "ℕ": 400,
      "⅓": 401,
      "⅔": 402,
      "Ⅰ": 403,
      "Ⅵ": 404,
      "←": 405,
      "→": 406,
      "↔": 407,
      "⇨": 408,
      "∇": 409,
      "∈": 410,
      "−": 411,
      "∓": 412,
      "∙": 413,
      "√": 414,
      "∝": 415,
      "∞": 416,
      "∫": 417,
      "∼": 418,
      "≠": 419,
      "≡": 420,
      "≤": 421,
      "≥": 422,
      "≪": 423,
      "≫": 424,
      "⊥": 425,
      "⋅": 426,
      "⋯": 427,
      "①": 428,
      "②": 429,
      "③": 430,
      "④": 431,
      "⑤": 432,
      "⑥": 433,
      "⑦": 434,
      "⑧": 435,
      "─": 436,
      "┌": 437,
      "┐": 438,
      "└": 439,
      "┘": 440,
      "┬": 441,
      "┴": 442,
      "■": 443,
      "△": 444,
      "◆": 445,
      "◯": 446,
      "☆": 447,
      "♡": 448,
      "♭": 449,
      "♯": 450,
      "⟨": 451,
      "⟩": 452,
      "⟪": 453,
      "⟫": 454,
      "、": 455,
      "。": 456,
      "々": 457,
      "〈": 458,
      "〉": 459,
      "《": 460,
      "》": 461,
      "「": 462,
      "」": 463,
      "『": 464,
      "』": 465,
      "〔": 466,
      "〕": 467,
      "あ": 468,
      "い": 469,
      "う": 470,
      "え": 471,
      "お": 472,
      "か": 473,
      "が": 474,
      "き": 475,
      "ぎ": 476,
      "く": 477,
      "ぐ": 478,
      "げ": 479,
      "こ": 480,
      "ご": 481,
      "さ": 482,
      "し": 483,
      "じ": 484,
      "す": 485,
      "ず": 486,
      "せ": 487,
      "ぜ": 488,
      "そ": 489,
      "た": 490,
      "だ": 491,
      "ち": 492,
      "っ": 493,
      "つ": 494,
      "づ": 495,
      "て": 496,
      "と": 497,
      "ど": 498,
      "な": 499,
      "に": 500,
      "ね": 501,
      "の": 502,
      "は": 503,
      "ひ": 504,
      "び": 505,
      "ぴ": 506,
      "ぶ": 507,
      "ぼ": 508,
      "ま": 509,
      "み": 510,
      "む": 511,
      "め": 512,
      "も": 513,
      "ゃ": 514,
      "や": 515,
      "ゆ": 516,
      "ょ": 517,
      "よ": 518,
      "ら": 519,
      "り": 520,
      "る": 521,
      "れ": 522,
      "ろ": 523,
      "わ": 524,
      "を": 525,
      "ん": 526,
      "ァ": 527,
      "ア": 528,
      "ィ": 529,
      "イ": 530,
      "ウ": 531,
      "ェ": 532,
      "エ": 533,
      "ォ": 534,
      "オ": 535,
      "カ": 536,
      "ガ": 537,
      "キ": 538,
      "ク": 539,
      "グ": 540,
      "ケ": 541,
      "ゲ": 542,
      "コ": 543,
      "サ": 544,
      "ザ": 545,
      "シ": 546,
      "ジ": 547,
      "ス": 548,
      "ズ": 549,
      "セ": 550,
      "ゾ": 551,
      "タ": 552,
      "ダ": 553,
      "チ": 554,
      "ヂ": 555,
      "ッ": 556,
      "テ": 557,
      "ト": 558,
      "ド": 559,
      "ナ": 560,
      "ネ": 561,
      "ノ": 562,
      "パ": 563,
      "ヒ": 564,
      "ピ": 565,
      "フ": 566,
      "ブ": 567,
      "プ": 568,
      "ホ": 569,
      "ボ": 570,
      "マ": 571,
      "ミ": 572,
      "ム": 573,
      "メ": 574,
      "ャ": 575,
      "ヤ": 576,
      "ユ": 577,
      "ョ": 578,
      "ヨ": 579,
      "ラ": 580,
      "リ": 581,
      "ル": 582,
      "レ": 583,
      "ロ": 584,
      "ワ": 585,
      "ヲ": 586,
      "ン": 587,
      "ヴ": 588,
      "ヶ": 589,
      "・": 590,
      "ー": 591,
      "ㄏ": 592,
      "ㄢ": 593,
      "ㄩ": 594,
      "ㄱ": 595,
      "ㄲ": 596,
      "ㄴ": 597,
      "ㄷ": 598,
      "ㄸ": 599,
      "ㄹ": 600,
      "ㅁ": 601,
      "ㅂ": 602,
      "ㅃ": 603,
      "ㅅ": 604,
      "ㅇ": 605,
      "ㅈ": 606,
      "ㅊ": 607,
      "ㅋ": 608,
      "ㅌ": 609,
      "ㅍ": 610,
      "ㅎ": 611,
      "ㅏ": 612,
      "ㅐ": 613,
      "ㅑ": 614,
      "ㅒ": 615,
      "ㅓ": 616,
      "ㅕ": 617,
      "ㅗ": 618,
      "ㅘ": 619,
      "ㅛ": 620,
      "ㅡ": 621,
      "ㅣ": 622,
      "ㅿ": 623,
      "ㆁ": 624,
      "ㆆ": 625,
      "ㆍ": 626,
      "㈀": 627,
      "㈁": 628,
      "㈂": 629,
      "㈜": 630,
      "㎍": 631,
      "㎑": 632,
      "㎒": 633,
      "㎜": 634,
      "㎞": 635,
      "㎡": 636,
      "㎦": 637,
      "㎾": 638,
      "㏊": 639,
      "㐎": 640,
      "㗂": 641,
      "一": 642,
      "丁": 643,
      "七": 644,
      "万": 645,
      "丈": 646,
      "三": 647,
      "上": 648,
      "下": 649,
      "不": 650,
      "与": 651,
      "丑": 652,
      "世": 653,
      "丘": 654,
      "丙": 655,
      "业": 656,
      "中": 657,
      "串": 658,
      "丸": 659,
      "丹": 660,
      "主": 661,
      "乃": 662,
      "久": 663,
      "之": 664,
      "乎": 665,
      "乏": 666,
      "乐": 667,
      "乘": 668,
      "乙": 669,
      "九": 670,
      "也": 671,
      "乭": 672,
      "乱": 673,
      "乳": 674,
      "乾": 675,
      "亂": 676,
      "了": 677,
      "争": 678,
      "事": 679,
      "二": 680,
      "于": 681,
      "互": 682,
      "五": 683,
      "井": 684,
      "亜": 685,
      "亞": 686,
      "亡": 687,
      "交": 688,
      "亥": 689,
      "产": 690,
      "亨": 691,
      "享": 692,
      "京": 693,
      "人": 694,
      "亻": 695,
      "什": 696,
      "仁": 697,
      "今": 698,
      "介": 699,
      "仏": 700,
      "仔": 701,
      "他": 702,
      "付": 703,
      "仙": 704,
      "代": 705,
      "令": 706,
      "以": 707,
      "仮": 708,
      "仰": 709,
      "仲": 710,
      "件": 711,
      "任": 712,
      "企": 713,
      "伊": 714,
      "伏": 715,
      "伐": 716,
      "休": 717,
      "会": 718,
      "伝": 719,
      "伴": 720,
      "似": 721,
      "伽": 722,
      "但": 723,
      "位": 724,
      "低": 725,
      "佐": 726,
      "佑": 727,
      "体": 728,
      "何": 729,
      "余": 730,
      "佛": 731,
      "作": 732,
      "你": 733,
      "佩": 734,
      "使": 735,
      "來": 736,
      "例": 737,
      "侍": 738,
      "供": 739,
      "依": 740,
      "侵": 741,
      "侶": 742,
      "係": 743,
      "俄": 744,
      "俊": 745,
      "俗": 746,
      "保": 747,
      "信": 748,
      "修": 749,
      "俳": 750,
      "俺": 751,
      "倉": 752,
      "個": 753,
      "倍": 754,
      "借": 755,
      "値": 756,
      "倪": 757,
      "倶": 758,
      "假": 759,
      "偉": 760,
      "偏": 761,
      "停": 762,
      "健": 763,
      "側": 764,
      "偶": 765,
      "備": 766,
      "傳": 767,
      "傷": 768,
      "僉": 769,
      "像": 770,
      "僧": 771,
      "價": 772,
      "儀": 773,
      "儁": 774,
      "億": 775,
      "償": 776,
      "優": 777,
      "兀": 778,
      "允": 779,
      "元": 780,
      "兆": 781,
      "先": 782,
      "光": 783,
      "兌": 784,
      "免": 785,
      "兒": 786,
      "入": 787,
      "內": 788,
      "全": 789,
      "兩": 790,
      "八": 791,
      "公": 792,
      "六": 793,
      "兮": 794,
      "兰": 795,
      "共": 796,
      "兵": 797,
      "其": 798,
      "具": 799,
      "典": 800,
      "内": 801,
      "円": 802,
      "冊": 803,
      "再": 804,
      "冠": 805,
      "冥": 806,
      "冬": 807,
      "冶": 808,
      "冷": 809,
      "凋": 810,
      "凍": 811,
      "凝": 812,
      "凡": 813,
      "凱": 814,
      "出": 815,
      "函": 816,
      "刀": 817,
      "分": 818,
      "切": 819,
      "刑": 820,
      "列": 821,
      "初": 822,
      "判": 823,
      "別": 824,
      "利": 825,
      "到": 826,
      "制": 827,
      "刺": 828,
      "刻": 829,
      "則": 830,
      "剌": 831,
      "前": 832,
      "剛": 833,
      "剩": 834,
      "副": 835,
      "割": 836,
      "創": 837,
      "劃": 838,
      "劇": 839,
      "劉": 840,
      "劍": 841,
      "力": 842,
      "加": 843,
      "务": 844,
      "动": 845,
      "助": 846,
      "劳": 847,
      "労": 848,
      "効": 849,
      "勃": 850,
      "勇": 851,
      "勉": 852,
      "動": 853,
      "務": 854,
      "勛": 855,
      "勝": 856,
      "勞": 857,
      "勢": 858,
      "勤": 859,
      "勳": 860,
      "勸": 861,
      "勾": 862,
      "勿": 863,
      "匂": 864,
      "化": 865,
      "北": 866,
      "区": 867,
      "医": 868,
      "區": 869,
      "十": 870,
      "千": 871,
      "午": 872,
      "半": 873,
      "协": 874,
      "協": 875,
      "南": 876,
      "博": 877,
      "卤": 878,
      "卦": 879,
      "卯": 880,
      "印": 881,
      "卵": 882,
      "卽": 883,
      "卿": 884,
      "厚": 885,
      "原": 886,
      "去": 887,
      "參": 888,
      "又": 889,
      "及": 890,
      "友": 891,
      "反": 892,
      "发": 893,
      "取": 894,
      "受": 895,
      "口": 896,
      "古": 897,
      "句": 898,
      "只": 899,
      "可": 900,
      "台": 901,
      "史": 902,
      "右": 903,
      "号": 904,
      "司": 905,
      "各": 906,
      "合": 907,
      "吉": 908,
      "同": 909,
      "名": 910,
      "后": 911,
      "吏": 912,
      "向": 913,
      "君": 914,
      "否": 915,
      "含": 916,
      "吳": 917,
      "吸": 918,
      "吹": 919,
      "吻": 920,
      "吾": 921,
      "呂": 922,
      "告": 923,
      "员": 924,
      "周": 925,
      "呪": 926,
      "味": 927,
      "命": 928,
      "和": 929,
      "咤": 930,
      "咸": 931,
      "哀": 932,
      "品": 933,
      "哈": 934,
      "員": 935,
      "哥": 936,
      "哲": 937,
      "唐": 938,
      "唯": 939,
      "商": 940,
      "啇": 941,
      "問": 942,
      "啓": 943,
      "善": 944,
      "喆": 945,
      "喊": 946,
      "喜": 947,
      "喟": 948,
      "喪": 949,
      "單": 950,
      "嗜": 951,
      "嘉": 952,
      "器": 953,
      "嚳": 954,
      "嚴": 955,
      "囚": 956,
      "四": 957,
      "回": 958,
      "因": 959,
      "团": 960,
      "団": 961,
      "図": 962,
      "固": 963,
      "国": 964,
      "圈": 965,
      "國": 966,
      "圍": 967,
      "園": 968,
      "圓": 969,
      "圖": 970,
      "團": 971,
      "土": 972,
      "圧": 973,
      "在": 974,
      "圭": 975,
      "地": 976,
      "址": 977,
      "均": 978,
      "坊": 979,
      "坎": 980,
      "坐": 981,
      "坤": 982,
      "坪": 983,
      "型": 984,
      "垠": 985,
      "城": 986,
      "域": 987,
      "埰": 988,
      "埵": 989,
      "培": 990,
      "基": 991,
      "堂": 992,
      "堅": 993,
      "堤": 994,
      "堯": 995,
      "報": 996,
      "場": 997,
      "塊": 998,
      "塔": 999,
      "塗": 1000,
      "塘": 1001,
      "塚": 1002,
      "塞": 1003,
      "塾": 1004,
      "境": 1005,
      "墓": 1006,
      "增": 1007,
      "墨": 1008,
      "墳": 1009,
      "壁": 1010,
      "壓": 1011,
      "壘": 1012,
      "壤": 1013,
      "士": 1014,
      "壮": 1015,
      "壯": 1016,
      "壷": 1017,
      "壽": 1018,
      "変": 1019,
      "夏": 1020,
      "夕": 1021,
      "外": 1022,
      "多": 1023,
      "夜": 1024,
      "夢": 1025,
      "大": 1026,
      "天": 1027,
      "太": 1028,
      "夫": 1029,
      "央": 1030,
      "失": 1031,
      "夷": 1032,
      "奇": 1033,
      "奉": 1034,
      "奎": 1035,
      "奏": 1036,
      "契": 1037,
      "奔": 1038,
      "套": 1039,
      "奘": 1040,
      "奢": 1041,
      "奥": 1042,
      "女": 1043,
      "好": 1044,
      "如": 1045,
      "妃": 1046,
      "妙": 1047,
      "妳": 1048,
      "妻": 1049,
      "始": 1050,
      "姓": 1051,
      "委": 1052,
      "姚": 1053,
      "姜": 1054,
      "姫": 1055,
      "姬": 1056,
      "姸": 1057,
      "威": 1058,
      "娥": 1059,
      "婆": 1060,
      "婦": 1061,
      "媒": 1062,
      "媛": 1063,
      "媧": 1064,
      "媽": 1065,
      "嫡": 1066,
      "嬰": 1067,
      "孁": 1068,
      "子": 1069,
      "孔": 1070,
      "字": 1071,
      "存": 1072,
      "孝": 1073,
      "孟": 1074,
      "季": 1075,
      "孤": 1076,
      "学": 1077,
      "孩": 1078,
      "孫": 1079,
      "學": 1080,
      "宀": 1081,
      "宅": 1082,
      "宇": 1083,
      "守": 1084,
      "安": 1085,
      "宋": 1086,
      "完": 1087,
      "宗": 1088,
      "官": 1089,
      "定": 1090,
      "宜": 1091,
      "宝": 1092,
      "実": 1093,
      "客": 1094,
      "宣": 1095,
      "室": 1096,
      "宮": 1097,
      "宰": 1098,
      "害": 1099,
      "宴": 1100,
      "家": 1101,
      "容": 1102,
      "宿": 1103,
      "寄": 1104,
      "密": 1105,
      "富": 1106,
      "寒": 1107,
      "寓": 1108,
      "察": 1109,
      "實": 1110,
      "寧": 1111,
      "寫": 1112,
      "寬": 1113,
      "寮": 1114,
      "寵": 1115,
      "寶": 1116,
      "寸": 1117,
      "寺": 1118,
      "导": 1119,
      "対": 1120,
      "寿": 1121,
      "封": 1122,
      "専": 1123,
      "射": 1124,
      "將": 1125,
      "專": 1126,
      "尋": 1127,
      "對": 1128,
      "導": 1129,
      "小": 1130,
      "少": 1131,
      "尔": 1132,
      "尙": 1133,
      "尚": 1134,
      "尤": 1135,
      "就": 1136,
      "尹": 1137,
      "尺": 1138,
      "尾": 1139,
      "局": 1140,
      "居": 1141,
      "屋": 1142,
      "展": 1143,
      "属": 1144,
      "層": 1145,
      "屬": 1146,
      "山": 1147,
      "岐": 1148,
      "岡": 1149,
      "岩": 1150,
      "岸": 1151,
      "峨": 1152,
      "峯": 1153,
      "峰": 1154,
      "峴": 1155,
      "島": 1156,
      "崇": 1157,
      "崐": 1158,
      "崑": 1159,
      "崔": 1160,
      "崗": 1161,
      "嶺": 1162,
      "川": 1163,
      "州": 1164,
      "巡": 1165,
      "巣": 1166,
      "工": 1167,
      "左": 1168,
      "巨": 1169,
      "巫": 1170,
      "差": 1171,
      "己": 1172,
      "已": 1173,
      "巴": 1174,
      "巻": 1175,
      "巽": 1176,
      "市": 1177,
      "布": 1178,
      "希": 1179,
      "帝": 1180,
      "帥": 1181,
      "師": 1182,
      "席": 1183,
      "帳": 1184,
      "帶": 1185,
      "常": 1186,
      "帽": 1187,
      "幕": 1188,
      "幢": 1189,
      "干": 1190,
      "平": 1191,
      "年": 1192,
      "幸": 1193,
      "幹": 1194,
      "幻": 1195,
      "幼": 1196,
      "幽": 1197,
      "广": 1198,
      "庁": 1199,
      "序": 1200,
      "底": 1201,
      "店": 1202,
      "庚": 1203,
      "府": 1204,
      "度": 1205,
      "座": 1206,
      "庫": 1207,
      "庵": 1208,
      "康": 1209,
      "庸": 1210,
      "廈": 1211,
      "廉": 1212,
      "廊": 1213,
      "廣": 1214,
      "廬": 1215,
      "廳": 1216,
      "延": 1217,
      "廷": 1218,
      "建": 1219,
      "廻": 1220,
      "开": 1221,
      "弄": 1222,
      "式": 1223,
      "弔": 1224,
      "引": 1225,
      "弗": 1226,
      "弘": 1227,
      "张": 1228,
      "弦": 1229,
      "張": 1230,
      "強": 1231,
      "弹": 1232,
      "弼": 1233,
      "彌": 1234,
      "彙": 1235,
      "形": 1236,
      "彦": 1237,
      "彩": 1238,
      "彬": 1239,
      "彰": 1240,
      "影": 1241,
      "往": 1242,
      "征": 1243,
      "待": 1244,
      "徊": 1245,
      "律": 1246,
      "後": 1247,
      "徐": 1248,
      "徒": 1249,
      "得": 1250,
      "從": 1251,
      "御": 1252,
      "復": 1253,
      "微": 1254,
      "徳": 1255,
      "徵": 1256,
      "德": 1257,
      "徽": 1258,
      "心": 1259,
      "忄": 1260,
      "必": 1261,
      "忍": 1262,
      "志": 1263,
      "忘": 1264,
      "忠": 1265,
      "念": 1266,
      "忽": 1267,
      "怖": 1268,
      "思": 1269,
      "性": 1270,
      "怨": 1271,
      "怪": 1272,
      "恒": 1273,
      "恢": 1274,
      "恩": 1275,
      "恭": 1276,
      "息": 1277,
      "悠": 1278,
      "您": 1279,
      "悪": 1280,
      "悲": 1281,
      "悳": 1282,
      "悼": 1283,
      "情": 1284,
      "惑": 1285,
      "惟": 1286,
      "惠": 1287,
      "惡": 1288,
      "想": 1289,
      "愁": 1290,
      "意": 1291,
      "愚": 1292,
      "愛": 1293,
      "感": 1294,
      "愼": 1295,
      "慈": 1296,
      "態": 1297,
      "慧": 1298,
      "慨": 1299,
      "慶": 1300,
      "憎": 1301,
      "憑": 1302,
      "憤": 1303,
      "憲": 1304,
      "應": 1305,
      "懷": 1306,
      "懿": 1307,
      "戈": 1308,
      "戍": 1309,
      "成": 1310,
      "我": 1311,
      "戒": 1312,
      "或": 1313,
      "戦": 1314,
      "截": 1315,
      "戰": 1316,
      "戱": 1317,
      "戶": 1318,
      "戸": 1319,
      "房": 1320,
      "所": 1321,
      "手": 1322,
      "扒": 1323,
      "打": 1324,
      "扱": 1325,
      "承": 1326,
      "技": 1327,
      "抄": 1328,
      "抒": 1329,
      "抗": 1330,
      "折": 1331,
      "抵": 1332,
      "抽": 1333,
      "拂": 1334,
      "拌": 1335,
      "拘": 1336,
      "拙": 1337,
      "拜": 1338,
      "拭": 1339,
      "持": 1340,
      "指": 1341,
      "振": 1342,
      "授": 1343,
      "掛": 1344,
      "掠": 1345,
      "探": 1346,
      "接": 1347,
      "描": 1348,
      "提": 1349,
      "換": 1350,
      "揭": 1351,
      "援": 1352,
      "損": 1353,
      "搖": 1354,
      "携": 1355,
      "摩": 1356,
      "撃": 1357,
      "撒": 1358,
      "撻": 1359,
      "擇": 1360,
      "擊": 1361,
      "操": 1362,
      "據": 1363,
      "擧": 1364,
      "擬": 1365,
      "擲": 1366,
      "攝": 1367,
      "支": 1368,
      "攵": 1369,
      "收": 1370,
      "改": 1371,
      "攻": 1372,
      "放": 1373,
      "政": 1374,
      "故": 1375,
      "敍": 1376,
      "敎": 1377,
      "敏": 1378,
      "救": 1379,
      "教": 1380,
      "敞": 1381,
      "散": 1382,
      "敦": 1383,
      "敬": 1384,
      "整": 1385,
      "敵": 1386,
      "敷": 1387,
      "數": 1388,
      "斂": 1389,
      "文": 1390,
      "斌": 1391,
      "斎": 1392,
      "斐": 1393,
      "斗": 1394,
      "料": 1395,
      "斬": 1396,
      "斯": 1397,
      "新": 1398,
      "斷": 1399,
      "方": 1400,
      "於": 1401,
      "旅": 1402,
      "族": 1403,
      "旗": 1404,
      "旣": 1405,
      "日": 1406,
      "旨": 1407,
      "早": 1408,
      "旬": 1409,
      "时": 1410,
      "旺": 1411,
      "旻": 1412,
      "昆": 1413,
      "昊": 1414,
      "昌": 1415,
      "明": 1416,
      "星": 1417,
      "映": 1418,
      "春": 1419,
      "昧": 1420,
      "昭": 1421,
      "是": 1422,
      "昶": 1423,
      "時": 1424,
      "晃": 1425,
      "晉": 1426,
      "晙": 1427,
      "晩": 1428,
      "普": 1429,
      "景": 1430,
      "晳": 1431,
      "晴": 1432,
      "晶": 1433,
      "智": 1434,
      "暎": 1435,
      "暗": 1436,
      "暢": 1437,
      "暻": 1438,
      "曆": 1439,
      "曜": 1440,
      "曲": 1441,
      "書": 1442,
      "曹": 1443,
      "曺": 1444,
      "曽": 1445,
      "替": 1446,
      "最": 1447,
      "會": 1448,
      "月": 1449,
      "有": 1450,
      "朔": 1451,
      "望": 1452,
      "朝": 1453,
      "期": 1454,
      "木": 1455,
      "未": 1456,
      "末": 1457,
      "本": 1458,
      "朱": 1459,
      "朴": 1460,
      "杉": 1461,
      "李": 1462,
      "杏": 1463,
      "材": 1464,
      "村": 1465,
      "杖": 1466,
      "杜": 1467,
      "束": 1468,
      "条": 1469,
      "来": 1470,
      "杯": 1471,
      "東": 1472,
      "杲": 1473,
      "松": 1474,
      "板": 1475,
      "析": 1476,
      "枕": 1477,
      "林": 1478,
      "果": 1479,
      "枝": 1480,
      "染": 1481,
      "柱": 1482,
      "柳": 1483,
      "柴": 1484,
      "査": 1485,
      "栗": 1486,
      "校": 1487,
      "核": 1488,
      "根": 1489,
      "格": 1490,
      "栽": 1491,
      "桂": 1492,
      "桃": 1493,
      "案": 1494,
      "桐": 1495,
      "桑": 1496,
      "桓": 1497,
      "梁": 1498,
      "梅": 1499,
      "梗": 1500,
      "條": 1501,
      "梨": 1502,
      "械": 1503,
      "棋": 1504,
      "棘": 1505,
      "森": 1506,
      "棲": 1507,
      "棺": 1508,
      "植": 1509,
      "椎": 1510,
      "椒": 1511,
      "検": 1512,
      "椵": 1513,
      "椿": 1514,
      "楊": 1515,
      "楚": 1516,
      "楠": 1517,
      "業": 1518,
      "極": 1519,
      "楷": 1520,
      "楽": 1521,
      "榮": 1522,
      "槃": 1523,
      "構": 1524,
      "様": 1525,
      "槪": 1526,
      "槿": 1527,
      "樂": 1528,
      "標": 1529,
      "模": 1530,
      "樣": 1531,
      "横": 1532,
      "樵": 1533,
      "樹": 1534,
      "橋": 1535,
      "機": 1536,
      "橫": 1537,
      "檀": 1538,
      "檍": 1539,
      "櫛": 1540,
      "權": 1541,
      "欠": 1542,
      "次": 1543,
      "欲": 1544,
      "欽": 1545,
      "歌": 1546,
      "歎": 1547,
      "歐": 1548,
      "止": 1549,
      "正": 1550,
      "此": 1551,
      "武": 1552,
      "歯": 1553,
      "歲": 1554,
      "歳": 1555,
      "歴": 1556,
      "歷": 1557,
      "歸": 1558,
      "死": 1559,
      "殉": 1560,
      "殖": 1561,
      "段": 1562,
      "殷": 1563,
      "殺": 1564,
      "殻": 1565,
      "殿": 1566,
      "毅": 1567,
      "母": 1568,
      "毎": 1569,
      "每": 1570,
      "毒": 1571,
      "比": 1572,
      "毘": 1573,
      "毛": 1574,
      "氏": 1575,
      "民": 1576,
      "气": 1577,
      "気": 1578,
      "氣": 1579,
      "水": 1580,
      "氵": 1581,
      "氷": 1582,
      "永": 1583,
      "氽": 1584,
      "求": 1585,
      "汎": 1586,
      "汗": 1587,
      "汚": 1588,
      "江": 1589,
      "池": 1590,
      "決": 1591,
      "沈": 1592,
      "沒": 1593,
      "沖": 1594,
      "沙": 1595,
      "沚": 1596,
      "沢": 1597,
      "河": 1598,
      "油": 1599,
      "治": 1600,
      "沼": 1601,
      "沿": 1602,
      "況": 1603,
      "泉": 1604,
      "泊": 1605,
      "泌": 1606,
      "法": 1607,
      "波": 1608,
      "泥": 1609,
      "泰": 1610,
      "泳": 1611,
      "洋": 1612,
      "洗": 1613,
      "洙": 1614,
      "洛": 1615,
      "洞": 1616,
      "津": 1617,
      "洪": 1618,
      "洲": 1619,
      "活": 1620,
      "派": 1621,
      "流": 1622,
      "浅": 1623,
      "浙": 1624,
      "浜": 1625,
      "浣": 1626,
      "浦": 1627,
      "浩": 1628,
      "浪": 1629,
      "浮": 1630,
      "海": 1631,
      "浸": 1632,
      "浹": 1633,
      "涅": 1634,
      "消": 1635,
      "涉": 1636,
      "涮": 1637,
      "液": 1638,
      "涼": 1639,
      "淀": 1640,
      "淑": 1641,
      "淙": 1642,
      "淚": 1643,
      "淡": 1644,
      "淨": 1645,
      "淮": 1646,
      "深": 1647,
      "淳": 1648,
      "淵": 1649,
      "混": 1650,
      "淸": 1651,
      "渋": 1652,
      "減": 1653,
      "温": 1654,
      "測": 1655,
      "港": 1656,
      "湌": 1657,
      "湖": 1658,
      "湧": 1659,
      "湯": 1660,
      "満": 1661,
      "源": 1662,
      "準": 1663,
      "溜": 1664,
      "溝": 1665,
      "溫": 1666,
      "溶": 1667,
      "滅": 1668,
      "滑": 1669,
      "滨": 1670,
      "滿": 1671,
      "漁": 1672,
      "演": 1673,
      "漢": 1674,
      "漫": 1675,
      "漱": 1676,
      "漳": 1677,
      "漸": 1678,
      "潑": 1679,
      "潘": 1680,
      "潛": 1681,
      "潤": 1682,
      "潮": 1683,
      "潽": 1684,
      "澄": 1685,
      "澤": 1686,
      "激": 1687,
      "濃": 1688,
      "濟": 1689,
      "濠": 1690,
      "濱": 1691,
      "濾": 1692,
      "瀅": 1693,
      "瀟": 1694,
      "灘": 1695,
      "灣": 1696,
      "火": 1697,
      "灰": 1698,
      "灾": 1699,
      "炎": 1700,
      "炒": 1701,
      "炖": 1702,
      "炭": 1703,
      "炯": 1704,
      "炳": 1705,
      "炸": 1706,
      "点": 1707,
      "為": 1708,
      "烈": 1709,
      "烤": 1710,
      "热": 1711,
      "烹": 1712,
      "無": 1713,
      "然": 1714,
      "煎": 1715,
      "煙": 1716,
      "煥": 1717,
      "煦": 1718,
      "照": 1719,
      "煨": 1720,
      "煮": 1721,
      "熊": 1722,
      "熏": 1723,
      "熒": 1724,
      "熙": 1725,
      "熱": 1726,
      "燁": 1727,
      "燃": 1728,
      "燈": 1729,
      "燒": 1730,
      "燕": 1731,
      "燜": 1732,
      "營": 1733,
      "燮": 1734,
      "燴": 1735,
      "爆": 1736,
      "爬": 1737,
      "爭": 1738,
      "爱": 1739,
      "爲": 1740,
      "父": 1741,
      "爸": 1742,
      "爻": 1743,
      "爾": 1744,
      "片": 1745,
      "版": 1746,
      "牌": 1747,
      "牙": 1748,
      "牛": 1749,
      "牧": 1750,
      "物": 1751,
      "特": 1752,
      "犧": 1753,
      "犬": 1754,
      "犯": 1755,
      "狀": 1756,
      "狂": 1757,
      "狄": 1758,
      "狗": 1759,
      "独": 1760,
      "狹": 1761,
      "狼": 1762,
      "猪": 1763,
      "猶": 1764,
      "獄": 1765,
      "獨": 1766,
      "獸": 1767,
      "獻": 1768,
      "玄": 1769,
      "玆": 1770,
      "率": 1771,
      "玉": 1772,
      "王": 1773,
      "玩": 1774,
      "玹": 1775,
      "珀": 1776,
      "珉": 1777,
      "珍": 1778,
      "珠": 1779,
      "珪": 1780,
      "班": 1781,
      "現": 1782,
      "球": 1783,
      "理": 1784,
      "琉": 1785,
      "琓": 1786,
      "琥": 1787,
      "琪": 1788,
      "琬": 1789,
      "琯": 1790,
      "琴": 1791,
      "瑛": 1792,
      "瑞": 1793,
      "瑪": 1794,
      "瑳": 1795,
      "璃": 1796,
      "璋": 1797,
      "璧": 1798,
      "環": 1799,
      "瓊": 1800,
      "瓚": 1801,
      "瓣": 1802,
      "瓦": 1803,
      "甘": 1804,
      "甚": 1805,
      "生": 1806,
      "産": 1807,
      "用": 1808,
      "甫": 1809,
      "田": 1810,
      "由": 1811,
      "甲": 1812,
      "申": 1813,
      "电": 1814,
      "男": 1815,
      "町": 1816,
      "界": 1817,
      "畏": 1818,
      "畓": 1819,
      "畔": 1820,
      "留": 1821,
      "略": 1822,
      "番": 1823,
      "異": 1824,
      "畵": 1825,
      "當": 1826,
      "畿": 1827,
      "疏": 1828,
      "疑": 1829,
      "疫": 1830,
      "疲": 1831,
      "病": 1832,
      "症": 1833,
      "痲": 1834,
      "痺": 1835,
      "療": 1836,
      "癩": 1837,
      "癸": 1838,
      "登": 1839,
      "發": 1840,
      "白": 1841,
      "百": 1842,
      "的": 1843,
      "皇": 1844,
      "皓": 1845,
      "皮": 1846,
      "皿": 1847,
      "益": 1848,
      "盛": 1849,
      "盟": 1850,
      "盡": 1851,
      "監": 1852,
      "盤": 1853,
      "盧": 1854,
      "目": 1855,
      "盲": 1856,
      "直": 1857,
      "相": 1858,
      "盾": 1859,
      "省": 1860,
      "眉": 1861,
      "県": 1862,
      "眞": 1863,
      "真": 1864,
      "眠": 1865,
      "眼": 1866,
      "睡": 1867,
      "督": 1868,
      "瞥": 1869,
      "瞬": 1870,
      "矛": 1871,
      "矢": 1872,
      "矣": 1873,
      "知": 1874,
      "短": 1875,
      "石": 1876,
      "砂": 1877,
      "研": 1878,
      "砦": 1879,
      "砲": 1880,
      "硏": 1881,
      "硬": 1882,
      "碎": 1883,
      "碑": 1884,
      "碧": 1885,
      "磁": 1886,
      "礎": 1887,
      "礪": 1888,
      "示": 1889,
      "社": 1890,
      "祈": 1891,
      "祐": 1892,
      "祖": 1893,
      "祗": 1894,
      "祝": 1895,
      "神": 1896,
      "票": 1897,
      "祭": 1898,
      "祺": 1899,
      "禁": 1900,
      "福": 1901,
      "禦": 1902,
      "禪": 1903,
      "禮": 1904,
      "禱": 1905,
      "禹": 1906,
      "禽": 1907,
      "秀": 1908,
      "私": 1909,
      "秉": 1910,
      "秊": 1911,
      "秋": 1912,
      "科": 1913,
      "秘": 1914,
      "秦": 1915,
      "移": 1916,
      "稀": 1917,
      "程": 1918,
      "稚": 1919,
      "種": 1920,
      "稱": 1921,
      "稷": 1922,
      "稻": 1923,
      "穆": 1924,
      "積": 1925,
      "穗": 1926,
      "究": 1927,
      "空": 1928,
      "穿": 1929,
      "窒": 1930,
      "窟": 1931,
      "窮": 1932,
      "竊": 1933,
      "立": 1934,
      "站": 1935,
      "竜": 1936,
      "竝": 1937,
      "竟": 1938,
      "章": 1939,
      "童": 1940,
      "竪": 1941,
      "端": 1942,
      "競": 1943,
      "竹": 1944,
      "竿": 1945,
      "笏": 1946,
      "笑": 1947,
      "符": 1948,
      "笨": 1949,
      "第": 1950,
      "笹": 1951,
      "筆": 1952,
      "等": 1953,
      "筋": 1954,
      "答": 1955,
      "箕": 1956,
      "算": 1957,
      "箭": 1958,
      "箴": 1959,
      "節": 1960,
      "範": 1961,
      "篆": 1962,
      "簡": 1963,
      "簿": 1964,
      "籍": 1965,
      "籒": 1966,
      "米": 1967,
      "粉": 1968,
      "粒": 1969,
      "粥": 1970,
      "粲": 1971,
      "粹": 1972,
      "精": 1973,
      "糖": 1974,
      "糸": 1975,
      "系": 1976,
      "紀": 1977,
      "紂": 1978,
      "約": 1979,
      "紅": 1980,
      "紋": 1981,
      "納": 1982,
      "純": 1983,
      "紙": 1984,
      "級": 1985,
      "素": 1986,
      "索": 1987,
      "紫": 1988,
      "累": 1989,
      "細": 1990,
      "組": 1991,
      "経": 1992,
      "結": 1993,
      "給": 1994,
      "統": 1995,
      "絲": 1996,
      "絶": 1997,
      "經": 1998,
      "続": 1999,
      "維": 2000,
      "綱": 2001,
      "網": 2002,
      "綴": 2003,
      "綿": 2004,
      "緋": 2005,
      "総": 2006,
      "緒": 2007,
      "緖": 2008,
      "線": 2009,
      "緞": 2010,
      "緣": 2011,
      "編": 2012,
      "緯": 2013,
      "練": 2014,
      "縣": 2015,
      "縮": 2016,
      "縱": 2017,
      "總": 2018,
      "繁": 2019,
      "織": 2020,
      "繪": 2021,
      "繫": 2022,
      "繼": 2023,
      "纂": 2024,
      "續": 2025,
      "纖": 2026,
      "终": 2027,
      "缘": 2028,
      "置": 2029,
      "署": 2030,
      "羅": 2031,
      "羊": 2032,
      "美": 2033,
      "群": 2034,
      "義": 2035,
      "羲": 2036,
      "羽": 2037,
      "翁": 2038,
      "習": 2039,
      "翕": 2040,
      "翠": 2041,
      "翰": 2042,
      "翼": 2043,
      "耀": 2044,
      "老": 2045,
      "考": 2046,
      "者": 2047,
      "耆": 2048,
      "而": 2049,
      "耕": 2050,
      "耳": 2051,
      "聖": 2052,
      "聚": 2053,
      "聞": 2054,
      "聯": 2055,
      "聲": 2056,
      "聴": 2057,
      "聾": 2058,
      "肅": 2059,
      "肉": 2060,
      "肖": 2061,
      "肪": 2062,
      "肯": 2063,
      "育": 2064,
      "肺": 2065,
      "胎": 2066,
      "胚": 2067,
      "胞": 2068,
      "胡": 2069,
      "胥": 2070,
      "能": 2071,
      "脂": 2072,
      "脈": 2073,
      "脊": 2074,
      "脫": 2075,
      "腌": 2076,
      "腑": 2077,
      "腕": 2078,
      "腦": 2079,
      "腸": 2080,
      "腹": 2081,
      "膜": 2082,
      "膽": 2083,
      "臄": 2084,
      "臆": 2085,
      "臘": 2086,
      "臟": 2087,
      "臣": 2088,
      "臨": 2089,
      "自": 2090,
      "至": 2091,
      "致": 2092,
      "臺": 2093,
      "興": 2094,
      "舊": 2095,
      "舌": 2096,
      "舒": 2097,
      "舜": 2098,
      "舞": 2099,
      "舟": 2100,
      "航": 2101,
      "般": 2102,
      "船": 2103,
      "艦": 2104,
      "艮": 2105,
      "良": 2106,
      "色": 2107,
      "艾": 2108,
      "芋": 2109,
      "芝": 2110,
      "芥": 2111,
      "花": 2112,
      "芳": 2113,
      "芸": 2114,
      "芹": 2115,
      "芽": 2116,
      "苑": 2117,
      "若": 2118,
      "苦": 2119,
      "英": 2120,
      "茂": 2121,
      "茅": 2122,
      "茶": 2123,
      "草": 2124,
      "荊": 2125,
      "荏": 2126,
      "荘": 2127,
      "荷": 2128,
      "莆": 2129,
      "莊": 2130,
      "莘": 2131,
      "莢": 2132,
      "菀": 2133,
      "菩": 2134,
      "華": 2135,
      "萩": 2136,
      "萬": 2137,
      "落": 2138,
      "葉": 2139,
      "著": 2140,
      "葛": 2141,
      "葦": 2142,
      "葬": 2143,
      "蒙": 2144,
      "蒸": 2145,
      "蓁": 2146,
      "蓄": 2147,
      "蓋": 2148,
      "蓓": 2149,
      "蓮": 2150,
      "蔑": 2151,
      "蔚": 2152,
      "蔟": 2153,
      "蔡": 2154,
      "蔣": 2155,
      "蔵": 2156,
      "蕙": 2157,
      "蕩": 2158,
      "蕭": 2159,
      "薛": 2160,
      "薩": 2161,
      "薪": 2162,
      "薫": 2163,
      "薰": 2164,
      "藍": 2165,
      "藏": 2166,
      "藝": 2167,
      "藤": 2168,
      "藥": 2169,
      "藪": 2170,
      "蘇": 2171,
      "蘭": 2172,
      "虎": 2173,
      "處": 2174,
      "虛": 2175,
      "虜": 2176,
      "虞": 2177,
      "號": 2178,
      "虫": 2179,
      "蚪": 2180,
      "蛋": 2181,
      "蛙": 2182,
      "蛛": 2183,
      "蜀": 2184,
      "蜘": 2185,
      "蜜": 2186,
      "蜥": 2187,
      "蝌": 2188,
      "蝕": 2189,
      "螺": 2190,
      "蟲": 2191,
      "蠟": 2192,
      "血": 2193,
      "衆": 2194,
      "行": 2195,
      "衍": 2196,
      "衒": 2197,
      "術": 2198,
      "街": 2199,
      "衛": 2200,
      "表": 2201,
      "袁": 2202,
      "袴": 2203,
      "裁": 2204,
      "裂": 2205,
      "補": 2206,
      "裝": 2207,
      "裴": 2208,
      "裵": 2209,
      "製": 2210,
      "複": 2211,
      "襄": 2212,
      "西": 2213,
      "要": 2214,
      "覇": 2215,
      "見": 2216,
      "規": 2217,
      "視": 2218,
      "覚": 2219,
      "覡": 2220,
      "親": 2221,
      "観": 2222,
      "覺": 2223,
      "覽": 2224,
      "觀": 2225,
      "角": 2226,
      "解": 2227,
      "觸": 2228,
      "言": 2229,
      "訂": 2230,
      "計": 2231,
      "討": 2232,
      "訓": 2233,
      "託": 2234,
      "記": 2235,
      "訣": 2236,
      "訥": 2237,
      "訪": 2238,
      "設": 2239,
      "許": 2240,
      "訳": 2241,
      "訴": 2242,
      "訶": 2243,
      "註": 2244,
      "評": 2245,
      "詞": 2246,
      "試": 2247,
      "詩": 2248,
      "詭": 2249,
      "話": 2250,
      "詳": 2251,
      "誇": 2252,
      "誉": 2253,
      "誌": 2254,
      "認": 2255,
      "誕": 2256,
      "誘": 2257,
      "語": 2258,
      "誠": 2259,
      "誦": 2260,
      "說": 2261,
      "説": 2262,
      "調": 2263,
      "談": 2264,
      "請": 2265,
      "諏": 2266,
      "論": 2267,
      "諦": 2268,
      "諸": 2269,
      "諺": 2270,
      "謀": 2271,
      "謏": 2272,
      "謙": 2273,
      "講": 2274,
      "謝": 2275,
      "謨": 2276,
      "證": 2277,
      "識": 2278,
      "譜": 2279,
      "警": 2280,
      "譯": 2281,
      "議": 2282,
      "譲": 2283,
      "護": 2284,
      "讀": 2285,
      "變": 2286,
      "讐": 2287,
      "讓": 2288,
      "讖": 2289,
      "谷": 2290,
      "豁": 2291,
      "豈": 2292,
      "豊": 2293,
      "豕": 2294,
      "象": 2295,
      "豫": 2296,
      "貞": 2297,
      "財": 2298,
      "貨": 2299,
      "貫": 2300,
      "貴": 2301,
      "賀": 2302,
      "資": 2303,
      "賊": 2304,
      "賞": 2305,
      "賢": 2306,
      "賣": 2307,
      "賦": 2308,
      "質": 2309,
      "賴": 2310,
      "贏": 2311,
      "赐": 2312,
      "赤": 2313,
      "赫": 2314,
      "走": 2315,
      "赴": 2316,
      "起": 2317,
      "超": 2318,
      "越": 2319,
      "趙": 2320,
      "趣": 2321,
      "足": 2322,
      "距": 2323,
      "路": 2324,
      "踏": 2325,
      "踐": 2326,
      "踢": 2327,
      "踰": 2328,
      "蹴": 2329,
      "躑": 2330,
      "身": 2331,
      "車": 2332,
      "軌": 2333,
      "軍": 2334,
      "軒": 2335,
      "軟": 2336,
      "軫": 2337,
      "軸": 2338,
      "軽": 2339,
      "軾": 2340,
      "載": 2341,
      "輝": 2342,
      "輪": 2343,
      "輯": 2344,
      "輸": 2345,
      "輿": 2346,
      "轅": 2347,
      "轉": 2348,
      "辛": 2349,
      "辨": 2350,
      "辭": 2351,
      "辯": 2352,
      "辰": 2353,
      "辱": 2354,
      "農": 2355,
      "辺": 2356,
      "运": 2357,
      "近": 2358,
      "进": 2359,
      "迦": 2360,
      "迪": 2361,
      "迫": 2362,
      "述": 2363,
      "追": 2364,
      "送": 2365,
      "逃": 2366,
      "逆": 2367,
      "选": 2368,
      "透": 2369,
      "逐": 2370,
      "途": 2371,
      "通": 2372,
      "速": 2373,
      "造": 2374,
      "連": 2375,
      "週": 2376,
      "進": 2377,
      "逸": 2378,
      "逼": 2379,
      "遂": 2380,
      "遇": 2381,
      "遊": 2382,
      "運": 2383,
      "遍": 2384,
      "過": 2385,
      "道": 2386,
      "達": 2387,
      "遠": 2388,
      "適": 2389,
      "遮": 2390,
      "遲": 2391,
      "遷": 2392,
      "選": 2393,
      "遺": 2394,
      "遼": 2395,
      "避": 2396,
      "邈": 2397,
      "邊": 2398,
      "邑": 2399,
      "那": 2400,
      "邦": 2401,
      "邪": 2402,
      "邱": 2403,
      "郎": 2404,
      "郑": 2405,
      "郞": 2406,
      "郡": 2407,
      "部": 2408,
      "郭": 2409,
      "都": 2410,
      "鄉": 2411,
      "鄕": 2412,
      "鄭": 2413,
      "配": 2414,
      "酒": 2415,
      "酵": 2416,
      "酸": 2417,
      "醇": 2418,
      "醤": 2419,
      "醫": 2420,
      "醬": 2421,
      "采": 2422,
      "釋": 2423,
      "里": 2424,
      "重": 2425,
      "野": 2426,
      "量": 2427,
      "金": 2428,
      "釜": 2429,
      "鈴": 2430,
      "鉄": 2431,
      "鉉": 2432,
      "鉢": 2433,
      "銀": 2434,
      "銃": 2435,
      "銅": 2436,
      "銑": 2437,
      "銘": 2438,
      "鋼": 2439,
      "錄": 2440,
      "錦": 2441,
      "錫": 2442,
      "錯": 2443,
      "鍊": 2444,
      "鍾": 2445,
      "鎌": 2446,
      "鎔": 2447,
      "鎖": 2448,
      "鎬": 2449,
      "鎭": 2450,
      "鏞": 2451,
      "鏡": 2452,
      "鐘": 2453,
      "鐵": 2454,
      "鑄": 2455,
      "鑑": 2456,
      "鑛": 2457,
      "钊": 2458,
      "長": 2459,
      "門": 2460,
      "閉": 2461,
      "開": 2462,
      "閏": 2463,
      "間": 2464,
      "閔": 2465,
      "関": 2466,
      "閥": 2467,
      "閩": 2468,
      "閭": 2469,
      "闔": 2470,
      "關": 2471,
      "阪": 2472,
      "阮": 2473,
      "防": 2474,
      "阿": 2475,
      "陀": 2476,
      "附": 2477,
      "降": 2478,
      "限": 2479,
      "陜": 2480,
      "院": 2481,
      "陣": 2482,
      "除": 2483,
      "陰": 2484,
      "陳": 2485,
      "陵": 2486,
      "陶": 2487,
      "陸": 2488,
      "陽": 2489,
      "隆": 2490,
      "隊": 2491,
      "隋": 2492,
      "階": 2493,
      "際": 2494,
      "障": 2495,
      "隣": 2496,
      "隸": 2497,
      "隻": 2498,
      "雀": 2499,
      "雁": 2500,
      "雄": 2501,
      "集": 2502,
      "雌": 2503,
      "雑": 2504,
      "雙": 2505,
      "雜": 2506,
      "離": 2507,
      "難": 2508,
      "雨": 2509,
      "雪": 2510,
      "雲": 2511,
      "雷": 2512,
      "電": 2513,
      "需": 2514,
      "震": 2515,
      "霊": 2516,
      "霜": 2517,
      "霧": 2518,
      "露": 2519,
      "霸": 2520,
      "靈": 2521,
      "靑": 2522,
      "青": 2523,
      "靖": 2524,
      "静": 2525,
      "靜": 2526,
      "非": 2527,
      "面": 2528,
      "革": 2529,
      "鞍": 2530,
      "鞠": 2531,
      "韓": 2532,
      "韩": 2533,
      "音": 2534,
      "韶": 2535,
      "韻": 2536,
      "響": 2537,
      "頂": 2538,
      "項": 2539,
      "順": 2540,
      "須": 2541,
      "頊": 2542,
      "頌": 2543,
      "頓": 2544,
      "領": 2545,
      "頭": 2546,
      "頻": 2547,
      "題": 2548,
      "顓": 2549,
      "顔": 2550,
      "顕": 2551,
      "願": 2552,
      "類": 2553,
      "風": 2554,
      "飛": 2555,
      "食": 2556,
      "飼": 2557,
      "飾": 2558,
      "養": 2559,
      "餘": 2560,
      "餠": 2561,
      "館": 2562,
      "饀": 2563,
      "饒": 2564,
      "饗": 2565,
      "首": 2566,
      "香": 2567,
      "馨": 2568,
      "馬": 2569,
      "駐": 2570,
      "駕": 2571,
      "駿": 2572,
      "騎": 2573,
      "験": 2574,
      "驅": 2575,
      "驗": 2576,
      "驛": 2577,
      "骨": 2578,
      "體": 2579,
      "高": 2580,
      "髙": 2581,
      "鬆": 2582,
      "鬪": 2583,
      "鬱": 2584,
      "鬼": 2585,
      "魂": 2586,
      "魏": 2587,
      "魔": 2588,
      "魚": 2589,
      "魯": 2590,
      "鮮": 2591,
      "鰐": 2592,
      "鰭": 2593,
      "鱗": 2594,
      "鳥": 2595,
      "鳩": 2596,
      "鳳": 2597,
      "鳴": 2598,
      "鴨": 2599,
      "鴻": 2600,
      "鵠": 2601,
      "鶴": 2602,
      "鷄": 2603,
      "鸟": 2604,
      "鹽": 2605,
      "鹿": 2606,
      "麒": 2607,
      "麗": 2608,
      "麟": 2609,
      "麥": 2610,
      "麵": 2611,
      "麻": 2612,
      "黃": 2613,
      "黄": 2614,
      "黎": 2615,
      "黑": 2616,
      "黒": 2617,
      "黔": 2618,
      "默": 2619,
      "點": 2620,
      "黨": 2621,
      "鼎": 2622,
      "鼠": 2623,
      "鼻": 2624,
      "齊": 2625,
      "齋": 2626,
      "齡": 2627,
      "龍": 2628,
      "龜": 2629,
      "가": 2630,
      "각": 2631,
      "간": 2632,
      "갇": 2633,
      "갈": 2634,
      "갉": 2635,
      "감": 2636,
      "갑": 2637,
      "값": 2638,
      "갓": 2639,
      "갔": 2640,
      "강": 2641,
      "갖": 2642,
      "같": 2643,
      "갚": 2644,
      "갛": 2645,
      "개": 2646,
      "객": 2647,
      "갠": 2648,
      "갤": 2649,
      "갬": 2650,
      "갭": 2651,
      "갯": 2652,
      "갰": 2653,
      "갱": 2654,
      "갸": 2655,
      "갹": 2656,
      "걀": 2657,
      "걔": 2658,
      "거": 2659,
      "걱": 2660,
      "건": 2661,
      "걷": 2662,
      "걸": 2663,
      "검": 2664,
      "겁": 2665,
      "것": 2666,
      "겉": 2667,
      "게": 2668,
      "겐": 2669,
      "겔": 2670,
      "겜": 2671,
      "겟": 2672,
      "겠": 2673,
      "겡": 2674,
      "겨": 2675,
      "격": 2676,
      "겪": 2677,
      "견": 2678,
      "결": 2679,
      "겸": 2680,
      "겹": 2681,
      "겼": 2682,
      "경": 2683,
      "곁": 2684,
      "계": 2685,
      "고": 2686,
      "곡": 2687,
      "곤": 2688,
      "곧": 2689,
      "골": 2690,
      "곪": 2691,
      "곰": 2692,
      "곱": 2693,
      "곳": 2694,
      "공": 2695,
      "곶": 2696,
      "과": 2697,
      "곽": 2698,
      "관": 2699,
      "괄": 2700,
      "괌": 2701,
      "광": 2702,
      "괘": 2703,
      "괜": 2704,
      "괭": 2705,
      "괴": 2706,
      "괵": 2707,
      "괼": 2708,
      "굉": 2709,
      "교": 2710,
      "구": 2711,
      "국": 2712,
      "군": 2713,
      "굳": 2714,
      "굴": 2715,
      "굵": 2716,
      "굶": 2717,
      "굽": 2718,
      "굿": 2719,
      "궁": 2720,
      "궂": 2721,
      "궈": 2722,
      "궉": 2723,
      "권": 2724,
      "궐": 2725,
      "궤": 2726,
      "귀": 2727,
      "귄": 2728,
      "귈": 2729,
      "귐": 2730,
      "귓": 2731,
      "규": 2732,
      "균": 2733,
      "귤": 2734,
      "그": 2735,
      "극": 2736,
      "근": 2737,
      "글": 2738,
      "긁": 2739,
      "금": 2740,
      "급": 2741,
      "긋": 2742,
      "긍": 2743,
      "긔": 2744,
      "기": 2745,
      "긴": 2746,
      "길": 2747,
      "김": 2748,
      "깁": 2749,
      "깃": 2750,
      "깅": 2751,
      "깊": 2752,
      "까": 2753,
      "깍": 2754,
      "깎": 2755,
      "깐": 2756,
      "깔": 2757,
      "깜": 2758,
      "깝": 2759,
      "깡": 2760,
      "깥": 2761,
      "깨": 2762,
      "깬": 2763,
      "깰": 2764,
      "깽": 2765,
      "꺼": 2766,
      "꺽": 2767,
      "꺾": 2768,
      "껀": 2769,
      "껄": 2770,
      "껍": 2771,
      "껏": 2772,
      "껐": 2773,
      "껑": 2774,
      "께": 2775,
      "껭": 2776,
      "껴": 2777,
      "꼈": 2778,
      "꼬": 2779,
      "꼭": 2780,
      "꼴": 2781,
      "꼼": 2782,
      "꼽": 2783,
      "꼿": 2784,
      "꽁": 2785,
      "꽂": 2786,
      "꽃": 2787,
      "꽈": 2788,
      "꽉": 2789,
      "꽝": 2790,
      "꽤": 2791,
      "꾀": 2792,
      "꾐": 2793,
      "꾸": 2794,
      "꾼": 2795,
      "꿀": 2796,
      "꿇": 2797,
      "꿈": 2798,
      "꿉": 2799,
      "꿋": 2800,
      "꿎": 2801,
      "꿔": 2802,
      "꿘": 2803,
      "꿨": 2804,
      "꿩": 2805,
      "꿰": 2806,
      "뀌": 2807,
      "뀐": 2808,
      "뀔": 2809,
      "뀜": 2810,
      "뀨": 2811,
      "끄": 2812,
      "끈": 2813,
      "끊": 2814,
      "끌": 2815,
      "끓": 2816,
      "끔": 2817,
      "끗": 2818,
      "끝": 2819,
      "끼": 2820,
      "낀": 2821,
      "낄": 2822,
      "낌": 2823,
      "낏": 2824,
      "나": 2825,
      "낙": 2826,
      "낚": 2827,
      "난": 2828,
      "날": 2829,
      "낡": 2830,
      "남": 2831,
      "납": 2832,
      "낫": 2833,
      "났": 2834,
      "낭": 2835,
      "낮": 2836,
      "낯": 2837,
      "낱": 2838,
      "낳": 2839,
      "내": 2840,
      "낵": 2841,
      "낸": 2842,
      "낼": 2843,
      "냄": 2844,
      "냅": 2845,
      "냇": 2846,
      "냈": 2847,
      "냉": 2848,
      "냐": 2849,
      "냑": 2850,
      "냔": 2851,
      "냘": 2852,
      "냠": 2853,
      "냥": 2854,
      "너": 2855,
      "넉": 2856,
      "넋": 2857,
      "넌": 2858,
      "널": 2859,
      "넒": 2860,
      "넓": 2861,
      "넘": 2862,
      "넙": 2863,
      "넛": 2864,
      "넣": 2865,
      "네": 2866,
      "넥": 2867,
      "넨": 2868,
      "넬": 2869,
      "넴": 2870,
      "넵": 2871,
      "넷": 2872,
      "넸": 2873,
      "녀": 2874,
      "녁": 2875,
      "년": 2876,
      "념": 2877,
      "녓": 2878,
      "녔": 2879,
      "녕": 2880,
      "녘": 2881,
      "녜": 2882,
      "녠": 2883,
      "녤": 2884,
      "노": 2885,
      "녹": 2886,
      "논": 2887,
      "놀": 2888,
      "놈": 2889,
      "놉": 2890,
      "농": 2891,
      "높": 2892,
      "놓": 2893,
      "놨": 2894,
      "뇌": 2895,
      "뇨": 2896,
      "뇬": 2897,
      "뇰": 2898,
      "뇽": 2899,
      "누": 2900,
      "눅": 2901,
      "눈": 2902,
      "눌": 2903,
      "눔": 2904,
      "눕": 2905,
      "눗": 2906,
      "눙": 2907,
      "눠": 2908,
      "눴": 2909,
      "뉘": 2910,
      "뉜": 2911,
      "뉠": 2912,
      "뉴": 2913,
      "늄": 2914,
      "느": 2915,
      "늑": 2916,
      "는": 2917,
      "늘": 2918,
      "늙": 2919,
      "늠": 2920,
      "능": 2921,
      "늦": 2922,
      "늪": 2923,
      "늬": 2924,
      "니": 2925,
      "닉": 2926,
      "닌": 2927,
      "닐": 2928,
      "님": 2929,
      "닙": 2930,
      "닛": 2931,
      "닝": 2932,
      "다": 2933,
      "닥": 2934,
      "닦": 2935,
      "단": 2936,
      "닫": 2937,
      "달": 2938,
      "닭": 2939,
      "닮": 2940,
      "닳": 2941,
      "담": 2942,
      "답": 2943,
      "닷": 2944,
      "당": 2945,
      "닻": 2946,
      "닿": 2947,
      "대": 2948,
      "댁": 2949,
      "댄": 2950,
      "댈": 2951,
      "댐": 2952,
      "댑": 2953,
      "댓": 2954,
      "댔": 2955,
      "댕": 2956,
      "댜": 2957,
      "더": 2958,
      "덕": 2959,
      "던": 2960,
      "덜": 2961,
      "덟": 2962,
      "덤": 2963,
      "덥": 2964,
      "덧": 2965,
      "덩": 2966,
      "덮": 2967,
      "데": 2968,
      "덱": 2969,
      "덴": 2970,
      "델": 2971,
      "뎀": 2972,
      "뎁": 2973,
      "뎃": 2974,
      "뎅": 2975,
      "뎌": 2976,
      "뎠": 2977,
      "뎬": 2978,
      "도": 2979,
      "독": 2980,
      "돈": 2981,
      "돋": 2982,
      "돌": 2983,
      "돔": 2984,
      "돕": 2985,
      "돗": 2986,
      "동": 2987,
      "돛": 2988,
      "돝": 2989,
      "돤": 2990,
      "돼": 2991,
      "됐": 2992,
      "되": 2993,
      "된": 2994,
      "될": 2995,
      "됨": 2996,
      "됩": 2997,
      "됭": 2998,
      "됸": 2999,
      "두": 3000,
      "둑": 3001,
      "둔": 3002,
      "둘": 3003,
      "둠": 3004,
      "둡": 3005,
      "둣": 3006,
      "둥": 3007,
      "둬": 3008,
      "뒀": 3009,
      "뒈": 3010,
      "뒤": 3011,
      "뒬": 3012,
      "뒷": 3013,
      "듀": 3014,
      "듈": 3015,
      "듐": 3016,
      "드": 3017,
      "득": 3018,
      "든": 3019,
      "듣": 3020,
      "들": 3021,
      "듦": 3022,
      "듬": 3023,
      "듭": 3024,
      "듯": 3025,
      "등": 3026,
      "디": 3027,
      "딕": 3028,
      "딘": 3029,
      "딛": 3030,
      "딜": 3031,
      "딤": 3032,
      "딥": 3033,
      "딧": 3034,
      "딩": 3035,
      "딪": 3036,
      "따": 3037,
      "딱": 3038,
      "딴": 3039,
      "딸": 3040,
      "땀": 3041,
      "땃": 3042,
      "땄": 3043,
      "땅": 3044,
      "때": 3045,
      "땐": 3046,
      "땜": 3047,
      "땠": 3048,
      "땡": 3049,
      "떠": 3050,
      "떡": 3051,
      "떤": 3052,
      "떨": 3053,
      "떳": 3054,
      "떴": 3055,
      "떻": 3056,
      "떼": 3057,
      "뗄": 3058,
      "뗏": 3059,
      "또": 3060,
      "똑": 3061,
      "똔": 3062,
      "똥": 3063,
      "뚜": 3064,
      "뚝": 3065,
      "뚤": 3066,
      "뚫": 3067,
      "뚱": 3068,
      "뛰": 3069,
      "뛴": 3070,
      "뛸": 3071,
      "뜀": 3072,
      "뜨": 3073,
      "뜩": 3074,
      "뜬": 3075,
      "뜯": 3076,
      "뜰": 3077,
      "뜸": 3078,
      "뜻": 3079,
      "띄": 3080,
      "띈": 3081,
      "띌": 3082,
      "띠": 3083,
      "띤": 3084,
      "띨": 3085,
      "띰": 3086,
      "띵": 3087,
      "라": 3088,
      "락": 3089,
      "란": 3090,
      "랄": 3091,
      "람": 3092,
      "랍": 3093,
      "랏": 3094,
      "랐": 3095,
      "랑": 3096,
      "랗": 3097,
      "래": 3098,
      "랙": 3099,
      "랜": 3100,
      "랠": 3101,
      "램": 3102,
      "랩": 3103,
      "랫": 3104,
      "랬": 3105,
      "랭": 3106,
      "랰": 3107,
      "랴": 3108,
      "략": 3109,
      "랼": 3110,
      "럅": 3111,
      "량": 3112,
      "러": 3113,
      "럭": 3114,
      "런": 3115,
      "럴": 3116,
      "럼": 3117,
      "럽": 3118,
      "럿": 3119,
      "렀": 3120,
      "렁": 3121,
      "렇": 3122,
      "레": 3123,
      "렉": 3124,
      "렌": 3125,
      "렐": 3126,
      "렘": 3127,
      "렙": 3128,
      "렛": 3129,
      "렝": 3130,
      "려": 3131,
      "력": 3132,
      "련": 3133,
      "렬": 3134,
      "렴": 3135,
      "렵": 3136,
      "렷": 3137,
      "렸": 3138,
      "령": 3139,
      "례": 3140,
      "롄": 3141,
      "로": 3142,
      "록": 3143,
      "론": 3144,
      "롤": 3145,
      "롬": 3146,
      "롭": 3147,
      "롯": 3148,
      "롱": 3149,
      "뢰": 3150,
      "뢴": 3151,
      "뢸": 3152,
      "룀": 3153,
      "룅": 3154,
      "료": 3155,
      "룡": 3156,
      "루": 3157,
      "룩": 3158,
      "룬": 3159,
      "룰": 3160,
      "룸": 3161,
      "룹": 3162,
      "룻": 3163,
      "룽": 3164,
      "뤀": 3165,
      "뤄": 3166,
      "뤌": 3167,
      "뤔": 3168,
      "뤘": 3169,
      "뤼": 3170,
      "뤽": 3171,
      "륀": 3172,
      "륄": 3173,
      "륌": 3174,
      "류": 3175,
      "륙": 3176,
      "륜": 3177,
      "률": 3178,
      "륨": 3179,
      "륭": 3180,
      "르": 3181,
      "륵": 3182,
      "른": 3183,
      "를": 3184,
      "름": 3185,
      "릅": 3186,
      "릇": 3187,
      "릉": 3188,
      "릎": 3189,
      "릐": 3190,
      "리": 3191,
      "릭": 3192,
      "린": 3193,
      "릴": 3194,
      "림": 3195,
      "립": 3196,
      "릿": 3197,
      "링": 3198,
      "마": 3199,
      "막": 3200,
      "만": 3201,
      "많": 3202,
      "맏": 3203,
      "말": 3204,
      "맑": 3205,
      "맘": 3206,
      "맙": 3207,
      "맛": 3208,
      "망": 3209,
      "맞": 3210,
      "맟": 3211,
      "맡": 3212,
      "맣": 3213,
      "매": 3214,
      "맥": 3215,
      "맨": 3216,
      "맬": 3217,
      "맴": 3218,
      "맵": 3219,
      "맷": 3220,
      "맸": 3221,
      "맹": 3222,
      "맺": 3223,
      "먀": 3224,
      "머": 3225,
      "먹": 3226,
      "먼": 3227,
      "멀": 3228,
      "멈": 3229,
      "멋": 3230,
      "멍": 3231,
      "메": 3232,
      "멕": 3233,
      "멘": 3234,
      "멜": 3235,
      "멤": 3236,
      "멧": 3237,
      "멩": 3238,
      "며": 3239,
      "멱": 3240,
      "면": 3241,
      "멸": 3242,
      "명": 3243,
      "몇": 3244,
      "몐": 3245,
      "모": 3246,
      "목": 3247,
      "몫": 3248,
      "몬": 3249,
      "몰": 3250,
      "몸": 3251,
      "몹": 3252,
      "못": 3253,
      "몽": 3254,
      "뫼": 3255,
      "묘": 3256,
      "묜": 3257,
      "무": 3258,
      "묵": 3259,
      "묶": 3260,
      "문": 3261,
      "묻": 3262,
      "물": 3263,
      "묽": 3264,
      "뭄": 3265,
      "뭇": 3266,
      "뭉": 3267,
      "뭍": 3268,
      "뭐": 3269,
      "뭔": 3270,
      "뭘": 3271,
      "뮈": 3272,
      "뮌": 3273,
      "뮐": 3274,
      "뮤": 3275,
      "뮨": 3276,
      "뮬": 3277,
      "뮴": 3278,
      "므": 3279,
      "믈": 3280,
      "믐": 3281,
      "미": 3282,
      "믹": 3283,
      "민": 3284,
      "믿": 3285,
      "밀": 3286,
      "밈": 3287,
      "밉": 3288,
      "밋": 3289,
      "밌": 3290,
      "밍": 3291,
      "밎": 3292,
      "및": 3293,
      "밑": 3294,
      "바": 3295,
      "박": 3296,
      "밖": 3297,
      "반": 3298,
      "받": 3299,
      "발": 3300,
      "밝": 3301,
      "밟": 3302,
      "밤": 3303,
      "밥": 3304,
      "밧": 3305,
      "방": 3306,
      "밭": 3307,
      "배": 3308,
      "백": 3309,
      "밴": 3310,
      "밸": 3311,
      "뱀": 3312,
      "뱃": 3313,
      "뱅": 3314,
      "뱉": 3315,
      "뱌": 3316,
      "뱡": 3317,
      "버": 3318,
      "벅": 3319,
      "번": 3320,
      "벋": 3321,
      "벌": 3322,
      "범": 3323,
      "법": 3324,
      "벗": 3325,
      "벙": 3326,
      "벚": 3327,
      "베": 3328,
      "벡": 3329,
      "벤": 3330,
      "벧": 3331,
      "벨": 3332,
      "벰": 3333,
      "벳": 3334,
      "벵": 3335,
      "벼": 3336,
      "벽": 3337,
      "변": 3338,
      "별": 3339,
      "볍": 3340,
      "볐": 3341,
      "병": 3342,
      "볕": 3343,
      "볜": 3344,
      "보": 3345,
      "복": 3346,
      "볶": 3347,
      "본": 3348,
      "볼": 3349,
      "봄": 3350,
      "봅": 3351,
      "봇": 3352,
      "봉": 3353,
      "봐": 3354,
      "봤": 3355,
      "뵈": 3356,
      "뵐": 3357,
      "뵘": 3358,
      "뵙": 3359,
      "부": 3360,
      "북": 3361,
      "분": 3362,
      "붇": 3363,
      "불": 3364,
      "붉": 3365,
      "붐": 3366,
      "붓": 3367,
      "붕": 3368,
      "붙": 3369,
      "뷁": 3370,
      "뷔": 3371,
      "뷜": 3372,
      "뷰": 3373,
      "뷸": 3374,
      "븀": 3375,
      "브": 3376,
      "븐": 3377,
      "블": 3378,
      "비": 3379,
      "빅": 3380,
      "빈": 3381,
      "빌": 3382,
      "빔": 3383,
      "빗": 3384,
      "빙": 3385,
      "빚": 3386,
      "빛": 3387,
      "빠": 3388,
      "빤": 3389,
      "빨": 3390,
      "빩": 3391,
      "빴": 3392,
      "빵": 3393,
      "빻": 3394,
      "빼": 3395,
      "빽": 3396,
      "뺀": 3397,
      "뺄": 3398,
      "뺌": 3399,
      "뺏": 3400,
      "뺑": 3401,
      "뺨": 3402,
      "뻐": 3403,
      "뻑": 3404,
      "뻔": 3405,
      "뻗": 3406,
      "뻘": 3407,
      "뼈": 3408,
      "뼘": 3409,
      "뼛": 3410,
      "뽀": 3411,
      "뽐": 3412,
      "뽑": 3413,
      "뽕": 3414,
      "뾰": 3415,
      "뿌": 3416,
      "뿐": 3417,
      "뿔": 3418,
      "뿜": 3419,
      "뿡": 3420,
      "쁘": 3421,
      "쁜": 3422,
      "쁠": 3423,
      "쁨": 3424,
      "쁩": 3425,
      "삐": 3426,
      "삥": 3427,
      "사": 3428,
      "삭": 3429,
      "삯": 3430,
      "산": 3431,
      "살": 3432,
      "삶": 3433,
      "삼": 3434,
      "삽": 3435,
      "삿": 3436,
      "샀": 3437,
      "상": 3438,
      "새": 3439,
      "색": 3440,
      "샌": 3441,
      "샐": 3442,
      "샘": 3443,
      "샙": 3444,
      "샛": 3445,
      "생": 3446,
      "샤": 3447,
      "샥": 3448,
      "샨": 3449,
      "샬": 3450,
      "샴": 3451,
      "샵": 3452,
      "샷": 3453,
      "샹": 3454,
      "섀": 3455,
      "섄": 3456,
      "섈": 3457,
      "섕": 3458,
      "서": 3459,
      "석": 3460,
      "섞": 3461,
      "선": 3462,
      "섣": 3463,
      "설": 3464,
      "섬": 3465,
      "섭": 3466,
      "섯": 3467,
      "섰": 3468,
      "성": 3469,
      "세": 3470,
      "섹": 3471,
      "센": 3472,
      "셀": 3473,
      "셈": 3474,
      "셉": 3475,
      "셋": 3476,
      "셌": 3477,
      "셍": 3478,
      "셔": 3479,
      "션": 3480,
      "셜": 3481,
      "셧": 3482,
      "셨": 3483,
      "셰": 3484,
      "셱": 3485,
      "셴": 3486,
      "셸": 3487,
      "솅": 3488,
      "소": 3489,
      "속": 3490,
      "손": 3491,
      "솔": 3492,
      "솜": 3493,
      "솝": 3494,
      "솟": 3495,
      "송": 3496,
      "솥": 3497,
      "솨": 3498,
      "솬": 3499,
      "솽": 3500,
      "쇄": 3501,
      "쇠": 3502,
      "쇤": 3503,
      "쇼": 3504,
      "숀": 3505,
      "숄": 3506,
      "숍": 3507,
      "수": 3508,
      "숙": 3509,
      "순": 3510,
      "숟": 3511,
      "술": 3512,
      "숨": 3513,
      "숩": 3514,
      "숫": 3515,
      "숭": 3516,
      "숯": 3517,
      "숱": 3518,
      "숲": 3519,
      "숴": 3520,
      "쉐": 3521,
      "쉑": 3522,
      "쉔": 3523,
      "쉘": 3524,
      "쉬": 3525,
      "쉰": 3526,
      "쉴": 3527,
      "쉼": 3528,
      "쉽": 3529,
      "슈": 3530,
      "슌": 3531,
      "슐": 3532,
      "슘": 3533,
      "슛": 3534,
      "슝": 3535,
      "스": 3536,
      "슨": 3537,
      "슬": 3538,
      "슭": 3539,
      "슴": 3540,
      "습": 3541,
      "슷": 3542,
      "승": 3543,
      "시": 3544,
      "식": 3545,
      "신": 3546,
      "싣": 3547,
      "실": 3548,
      "싫": 3549,
      "심": 3550,
      "십": 3551,
      "싯": 3552,
      "싱": 3553,
      "싶": 3554,
      "싸": 3555,
      "싹": 3556,
      "싼": 3557,
      "쌀": 3558,
      "쌈": 3559,
      "쌌": 3560,
      "쌍": 3561,
      "쌓": 3562,
      "쌤": 3563,
      "써": 3564,
      "썩": 3565,
      "썬": 3566,
      "썰": 3567,
      "썸": 3568,
      "썹": 3569,
      "썼": 3570,
      "쎄": 3571,
      "쎈": 3572,
      "쏘": 3573,
      "쏙": 3574,
      "쏜": 3575,
      "쏟": 3576,
      "쏠": 3577,
      "쏨": 3578,
      "쏭": 3579,
      "쏱": 3580,
      "쐐": 3581,
      "쑈": 3582,
      "쑤": 3583,
      "쑥": 3584,
      "쑨": 3585,
      "쑹": 3586,
      "쒸": 3587,
      "쓰": 3588,
      "쓴": 3589,
      "쓸": 3590,
      "씀": 3591,
      "씌": 3592,
      "씨": 3593,
      "씩": 3594,
      "씬": 3595,
      "씸": 3596,
      "씹": 3597,
      "씻": 3598,
      "씽": 3599,
      "아": 3600,
      "악": 3601,
      "안": 3602,
      "앉": 3603,
      "않": 3604,
      "알": 3605,
      "앎": 3606,
      "앓": 3607,
      "암": 3608,
      "압": 3609,
      "앗": 3610,
      "았": 3611,
      "앙": 3612,
      "앞": 3613,
      "애": 3614,
      "액": 3615,
      "앤": 3616,
      "앧": 3617,
      "앨": 3618,
      "앰": 3619,
      "앱": 3620,
      "앳": 3621,
      "앴": 3622,
      "앵": 3623,
      "야": 3624,
      "약": 3625,
      "얀": 3626,
      "얄": 3627,
      "얇": 3628,
      "얌": 3629,
      "얏": 3630,
      "양": 3631,
      "얕": 3632,
      "얗": 3633,
      "얘": 3634,
      "얜": 3635,
      "어": 3636,
      "억": 3637,
      "언": 3638,
      "얹": 3639,
      "얻": 3640,
      "얼": 3641,
      "얽": 3642,
      "엄": 3643,
      "업": 3644,
      "없": 3645,
      "엇": 3646,
      "었": 3647,
      "엉": 3648,
      "엌": 3649,
      "엎": 3650,
      "에": 3651,
      "엑": 3652,
      "엔": 3653,
      "엘": 3654,
      "엠": 3655,
      "엡": 3656,
      "엣": 3657,
      "엥": 3658,
      "여": 3659,
      "역": 3660,
      "엮": 3661,
      "연": 3662,
      "열": 3663,
      "엷": 3664,
      "염": 3665,
      "엽": 3666,
      "엿": 3667,
      "였": 3668,
      "영": 3669,
      "옅": 3670,
      "옆": 3671,
      "예": 3672,
      "옉": 3673,
      "옌": 3674,
      "옐": 3675,
      "옙": 3676,
      "옛": 3677,
      "오": 3678,
      "옥": 3679,
      "온": 3680,
      "올": 3681,
      "옮": 3682,
      "옳": 3683,
      "옴": 3684,
      "옵": 3685,
      "옷": 3686,
      "옹": 3687,
      "와": 3688,
      "왁": 3689,
      "완": 3690,
      "왈": 3691,
      "왑": 3692,
      "왓": 3693,
      "왔": 3694,
      "왕": 3695,
      "왜": 3696,
      "왠": 3697,
      "왱": 3698,
      "외": 3699,
      "왼": 3700,
      "욀": 3701,
      "욋": 3702,
      "요": 3703,
      "욕": 3704,
      "욘": 3705,
      "욜": 3706,
      "욤": 3707,
      "욧": 3708,
      "용": 3709,
      "우": 3710,
      "욱": 3711,
      "운": 3712,
      "울": 3713,
      "움": 3714,
      "웁": 3715,
      "웃": 3716,
      "웅": 3717,
      "워": 3718,
      "웍": 3719,
      "원": 3720,
      "월": 3721,
      "웜": 3722,
      "웠": 3723,
      "웡": 3724,
      "웨": 3725,
      "웬": 3726,
      "웰": 3727,
      "웸": 3728,
      "웹": 3729,
      "웻": 3730,
      "웽": 3731,
      "윁": 3732,
      "위": 3733,
      "윅": 3734,
      "윈": 3735,
      "윌": 3736,
      "윔": 3737,
      "윗": 3738,
      "윙": 3739,
      "유": 3740,
      "육": 3741,
      "윤": 3742,
      "율": 3743,
      "윰": 3744,
      "윳": 3745,
      "융": 3746,
      "으": 3747,
      "윽": 3748,
      "은": 3749,
      "을": 3750,
      "읊": 3751,
      "음": 3752,
      "읍": 3753,
      "응": 3754,
      "읗": 3755,
      "의": 3756,
      "읜": 3757,
      "이": 3758,
      "익": 3759,
      "인": 3760,
      "일": 3761,
      "읽": 3762,
      "잃": 3763,
      "임": 3764,
      "입": 3765,
      "잇": 3766,
      "있": 3767,
      "잉": 3768,
      "잊": 3769,
      "잎": 3770,
      "자": 3771,
      "작": 3772,
      "잔": 3773,
      "잖": 3774,
      "잘": 3775,
      "잠": 3776,
      "잡": 3777,
      "잣": 3778,
      "잤": 3779,
      "장": 3780,
      "잦": 3781,
      "재": 3782,
      "잭": 3783,
      "잰": 3784,
      "잴": 3785,
      "잼": 3786,
      "잽": 3787,
      "잿": 3788,
      "쟁": 3789,
      "쟈": 3790,
      "쟝": 3791,
      "저": 3792,
      "적": 3793,
      "전": 3794,
      "절": 3795,
      "젊": 3796,
      "젋": 3797,
      "점": 3798,
      "접": 3799,
      "젓": 3800,
      "정": 3801,
      "젖": 3802,
      "제": 3803,
      "젝": 3804,
      "젠": 3805,
      "젤": 3806,
      "젬": 3807,
      "젭": 3808,
      "젯": 3809,
      "젱": 3810,
      "져": 3811,
      "젹": 3812,
      "젼": 3813,
      "졈": 3814,
      "졌": 3815,
      "졔": 3816,
      "조": 3817,
      "족": 3818,
      "존": 3819,
      "졸": 3820,
      "좀": 3821,
      "좁": 3822,
      "종": 3823,
      "좇": 3824,
      "좋": 3825,
      "좌": 3826,
      "좡": 3827,
      "죄": 3828,
      "죈": 3829,
      "죠": 3830,
      "죤": 3831,
      "주": 3832,
      "죽": 3833,
      "준": 3834,
      "줄": 3835,
      "줌": 3836,
      "줍": 3837,
      "중": 3838,
      "줘": 3839,
      "줬": 3840,
      "쥐": 3841,
      "쥔": 3842,
      "쥘": 3843,
      "쥠": 3844,
      "쥬": 3845,
      "쥰": 3846,
      "쥴": 3847,
      "즈": 3848,
      "즉": 3849,
      "즌": 3850,
      "즐": 3851,
      "즘": 3852,
      "즙": 3853,
      "증": 3854,
      "지": 3855,
      "직": 3856,
      "진": 3857,
      "짇": 3858,
      "질": 3859,
      "짊": 3860,
      "짐": 3861,
      "집": 3862,
      "짓": 3863,
      "징": 3864,
      "짖": 3865,
      "짙": 3866,
      "짚": 3867,
      "짜": 3868,
      "짝": 3869,
      "짠": 3870,
      "짢": 3871,
      "짤": 3872,
      "짧": 3873,
      "짬": 3874,
      "짭": 3875,
      "짱": 3876,
      "째": 3877,
      "쨌": 3878,
      "쨩": 3879,
      "쩌": 3880,
      "쩍": 3881,
      "쩐": 3882,
      "쩔": 3883,
      "쩡": 3884,
      "쩨": 3885,
      "쪄": 3886,
      "쪼": 3887,
      "쪽": 3888,
      "쫀": 3889,
      "쫄": 3890,
      "쫒": 3891,
      "쫓": 3892,
      "쬐": 3893,
      "쬔": 3894,
      "쭈": 3895,
      "쭉": 3896,
      "쭐": 3897,
      "쭤": 3898,
      "쮜": 3899,
      "쯔": 3900,
      "쯤": 3901,
      "쯩": 3902,
      "찌": 3903,
      "찍": 3904,
      "찐": 3905,
      "찔": 3906,
      "찜": 3907,
      "찢": 3908,
      "차": 3909,
      "착": 3910,
      "찬": 3911,
      "찮": 3912,
      "찰": 3913,
      "참": 3914,
      "찹": 3915,
      "찻": 3916,
      "찼": 3917,
      "창": 3918,
      "찾": 3919,
      "챂": 3920,
      "채": 3921,
      "책": 3922,
      "챈": 3923,
      "챌": 3924,
      "챔": 3925,
      "챗": 3926,
      "챙": 3927,
      "챠": 3928,
      "챤": 3929,
      "처": 3930,
      "척": 3931,
      "천": 3932,
      "철": 3933,
      "첨": 3934,
      "첩": 3935,
      "첫": 3936,
      "청": 3937,
      "체": 3938,
      "첵": 3939,
      "첸": 3940,
      "첼": 3941,
      "쳄": 3942,
      "쳇": 3943,
      "쳐": 3944,
      "쳤": 3945,
      "초": 3946,
      "촉": 3947,
      "촌": 3948,
      "촐": 3949,
      "촘": 3950,
      "촛": 3951,
      "총": 3952,
      "촨": 3953,
      "촬": 3954,
      "최": 3955,
      "쵸": 3956,
      "추": 3957,
      "축": 3958,
      "춘": 3959,
      "출": 3960,
      "춤": 3961,
      "춥": 3962,
      "춧": 3963,
      "충": 3964,
      "춰": 3965,
      "췄": 3966,
      "췌": 3967,
      "취": 3968,
      "췬": 3969,
      "츄": 3970,
      "츠": 3971,
      "측": 3972,
      "츤": 3973,
      "츨": 3974,
      "츰": 3975,
      "층": 3976,
      "츼": 3977,
      "치": 3978,
      "칙": 3979,
      "친": 3980,
      "칠": 3981,
      "침": 3982,
      "칩": 3983,
      "칫": 3984,
      "칭": 3985,
      "카": 3986,
      "칵": 3987,
      "칸": 3988,
      "칼": 3989,
      "캄": 3990,
      "캅": 3991,
      "캇": 3992,
      "캉": 3993,
      "캐": 3994,
      "캔": 3995,
      "캘": 3996,
      "캠": 3997,
      "캡": 3998,
      "캣": 3999,
      "캤": 4000,
      "캥": 4001,
      "캬": 4002,
      "캰": 4003,
      "커": 4004,
      "컥": 4005,
      "컨": 4006,
      "컫": 4007,
      "컬": 4008,
      "컴": 4009,
      "컵": 4010,
      "컷": 4011,
      "컸": 4012,
      "컹": 4013,
      "케": 4014,
      "켄": 4015,
      "켈": 4016,
      "켐": 4017,
      "켑": 4018,
      "켓": 4019,
      "켜": 4020,
      "켠": 4021,
      "켤": 4022,
      "켬": 4023,
      "켯": 4024,
      "켰": 4025,
      "코": 4026,
      "콕": 4027,
      "콘": 4028,
      "콜": 4029,
      "콤": 4030,
      "콥": 4031,
      "콧": 4032,
      "콩": 4033,
      "콰": 4034,
      "콴": 4035,
      "콸": 4036,
      "쾅": 4037,
      "쾌": 4038,
      "쾨": 4039,
      "쾰": 4040,
      "쿄": 4041,
      "쿠": 4042,
      "쿡": 4043,
      "쿤": 4044,
      "쿨": 4045,
      "쿰": 4046,
      "쿱": 4047,
      "쿳": 4048,
      "쿵": 4049,
      "쿼": 4050,
      "쿽": 4051,
      "퀀": 4052,
      "퀄": 4053,
      "퀘": 4054,
      "퀙": 4055,
      "퀜": 4056,
      "퀴": 4057,
      "퀵": 4058,
      "퀸": 4059,
      "퀼": 4060,
      "큉": 4061,
      "큐": 4062,
      "큘": 4063,
      "크": 4064,
      "큰": 4065,
      "클": 4066,
      "큼": 4067,
      "킁": 4068,
      "키": 4069,
      "킥": 4070,
      "킨": 4071,
      "킬": 4072,
      "킴": 4073,
      "킵": 4074,
      "킷": 4075,
      "킹": 4076,
      "타": 4077,
      "탁": 4078,
      "탄": 4079,
      "탈": 4080,
      "탐": 4081,
      "탑": 4082,
      "탓": 4083,
      "탔": 4084,
      "탕": 4085,
      "태": 4086,
      "택": 4087,
      "탠": 4088,
      "탣": 4089,
      "탤": 4090,
      "탬": 4091,
      "탭": 4092,
      "탯": 4093,
      "탱": 4094,
      "탸": 4095,
      "터": 4096,
      "턱": 4097,
      "턴": 4098,
      "털": 4099,
      "텀": 4100,
      "텁": 4101,
      "텃": 4102,
      "텅": 4103,
      "테": 4104,
      "텍": 4105,
      "텐": 4106,
      "텔": 4107,
      "템": 4108,
      "텝": 4109,
      "텟": 4110,
      "텡": 4111,
      "텼": 4112,
      "톄": 4113,
      "톈": 4114,
      "토": 4115,
      "톡": 4116,
      "톤": 4117,
      "톨": 4118,
      "톰": 4119,
      "톱": 4120,
      "통": 4121,
      "퇘": 4122,
      "퇴": 4123,
      "툐": 4124,
      "투": 4125,
      "툭": 4126,
      "툰": 4127,
      "툴": 4128,
      "툼": 4129,
      "툽": 4130,
      "퉁": 4131,
      "튀": 4132,
      "튄": 4133,
      "튈": 4134,
      "튕": 4135,
      "튜": 4136,
      "튠": 4137,
      "튤": 4138,
      "튬": 4139,
      "트": 4140,
      "특": 4141,
      "튼": 4142,
      "튿": 4143,
      "틀": 4144,
      "틈": 4145,
      "틔": 4146,
      "티": 4147,
      "틱": 4148,
      "틴": 4149,
      "틸": 4150,
      "팀": 4151,
      "팁": 4152,
      "팅": 4153,
      "파": 4154,
      "팍": 4155,
      "팎": 4156,
      "판": 4157,
      "팔": 4158,
      "팜": 4159,
      "팝": 4160,
      "팟": 4161,
      "팠": 4162,
      "팡": 4163,
      "팥": 4164,
      "패": 4165,
      "팩": 4166,
      "팬": 4167,
      "팰": 4168,
      "팸": 4169,
      "팹": 4170,
      "팻": 4171,
      "팽": 4172,
      "퍠": 4173,
      "퍼": 4174,
      "퍽": 4175,
      "펀": 4176,
      "펄": 4177,
      "펌": 4178,
      "펐": 4179,
      "펑": 4180,
      "페": 4181,
      "펙": 4182,
      "펜": 4183,
      "펠": 4184,
      "펨": 4185,
      "펩": 4186,
      "펫": 4187,
      "펭": 4188,
      "펴": 4189,
      "펵": 4190,
      "편": 4191,
      "펼": 4192,
      "폄": 4193,
      "폈": 4194,
      "평": 4195,
      "폐": 4196,
      "폔": 4197,
      "포": 4198,
      "폭": 4199,
      "폰": 4200,
      "폴": 4201,
      "폼": 4202,
      "폿": 4203,
      "퐁": 4204,
      "푀": 4205,
      "푈": 4206,
      "푕": 4207,
      "표": 4208,
      "푝": 4209,
      "푯": 4210,
      "푸": 4211,
      "푹": 4212,
      "푼": 4213,
      "풀": 4214,
      "품": 4215,
      "풋": 4216,
      "풍": 4217,
      "퓌": 4218,
      "퓔": 4219,
      "퓨": 4220,
      "퓰": 4221,
      "퓸": 4222,
      "프": 4223,
      "픈": 4224,
      "플": 4225,
      "픔": 4226,
      "피": 4227,
      "픽": 4228,
      "핀": 4229,
      "필": 4230,
      "핌": 4231,
      "핍": 4232,
      "핏": 4233,
      "핑": 4234,
      "하": 4235,
      "학": 4236,
      "한": 4237,
      "핟": 4238,
      "할": 4239,
      "핥": 4240,
      "함": 4241,
      "합": 4242,
      "핫": 4243,
      "항": 4244,
      "핳": 4245,
      "해": 4246,
      "핵": 4247,
      "핸": 4248,
      "핻": 4249,
      "핼": 4250,
      "햄": 4251,
      "햅": 4252,
      "햇": 4253,
      "했": 4254,
      "행": 4255,
      "햏": 4256,
      "햐": 4257,
      "햣": 4258,
      "햤": 4259,
      "향": 4260,
      "허": 4261,
      "헉": 4262,
      "헌": 4263,
      "헐": 4264,
      "험": 4265,
      "헛": 4266,
      "헝": 4267,
      "헤": 4268,
      "헥": 4269,
      "헨": 4270,
      "헬": 4271,
      "헴": 4272,
      "헵": 4273,
      "헷": 4274,
      "헹": 4275,
      "헿": 4276,
      "혀": 4277,
      "혁": 4278,
      "현": 4279,
      "혈": 4280,
      "혐": 4281,
      "협": 4282,
      "혔": 4283,
      "형": 4284,
      "혜": 4285,
      "호": 4286,
      "혹": 4287,
      "혼": 4288,
      "홀": 4289,
      "홈": 4290,
      "홉": 4291,
      "홋": 4292,
      "홍": 4293,
      "홑": 4294,
      "화": 4295,
      "확": 4296,
      "환": 4297,
      "활": 4298,
      "황": 4299,
      "횃": 4300,
      "회": 4301,
      "획": 4302,
      "횔": 4303,
      "횟": 4304,
      "횡": 4305,
      "효": 4306,
      "후": 4307,
      "훅": 4308,
      "훈": 4309,
      "훌": 4310,
      "훑": 4311,
      "훔": 4312,
      "훗": 4313,
      "훙": 4314,
      "훤": 4315,
      "훨": 4316,
      "훼": 4317,
      "휘": 4318,
      "휜": 4319,
      "휠": 4320,
      "휨": 4321,
      "휩": 4322,
      "휴": 4323,
      "휼": 4324,
      "흄": 4325,
      "흉": 4326,
      "흐": 4327,
      "흑": 4328,
      "흔": 4329,
      "흘": 4330,
      "흙": 4331,
      "흠": 4332,
      "흡": 4333,
      "흥": 4334,
      "흩": 4335,
      "흫": 4336,
      "희": 4337,
      "흰": 4338,
      "흽": 4339,
      "히": 4340,
      "힉": 4341,
      "힌": 4342,
      "힐": 4343,
      "힘": 4344,
      "힙": 4345,
      "힛": 4346,
      "힝": 4347,
      "＃": 4348,
      "％": 4349,
      "＆": 4350,
      "（": 4351,
      "）": 4352,
      "＋": 4353,
      "，": 4354,
      "－": 4355,
      "．": 4356,
      "／": 4357,
      "１": 4358,
      "２": 4359,
      "３": 4360,
      "：": 4361,
      "；": 4362,
      "＜": 4363,
      "＝": 4364,
      "＞": 4365,
      "？": 4366,
      "＠": 4367,
      "ａ": 4368,
      "ｂ": 4369,
      "ｃ": 4370,
      "ｄ": 4371,
      "ｅ": 4372,
      "ｆ": 4373,
      "ｇ": 4374,
      "ｈ": 4375,
      "ｉ": 4376,
      "ｋ": 4377,
      "ｌ": 4378,
      "ｍ": 4379,
      "ｎ": 4380,
      "ｏ": 4381,
      "ｐ": 4382,
      "ｑ": 4383,
      "ｒ": 4384,
      "ｓ": 4385,
      "ｔ": 4386,
      "ｕ": 4387,
      "ｖ": 4388,
      "ｗ": 4389,
      "ｘ": 4390,
      "ｙ": 4391,
      "｜": 4392,
      "～": 4393,
      "19": 4394,
      "국의": 4395,
      "대한": 4396,
      "20": 4397,
      "에서": 4398,
      "으로": 4399,
      "대한민": 4400,
      "대한민국의": 4401,
      "었다": 4402,
      "하는": 4403,
      "있다": 4404,
      "18": 4405,
      "하였": 4406,
      "한다": 4407,
      "~)": 4408,
      "이다": 4409,
      "200": 4410,
      "2년": 4411,
      "0년": 4412,
      "했다": 4413,
      "배우": 4414,
      "3년": 4415,
      "1년": 4416,
      "199": 4417,
      "5년": 4418,
      "7년": 4419,
      "4년": 4420,
      "6년": 4421,
      "하였다": 4422,
      "(~": 4423,
      "선수": 4424,
      "하고": 4425,
      "198": 4426,
      "하여": 4427,
      "되었다": 4428,
      "9년": 4429,
      "8년": 4430,
      "미국의": 4431,
      "201": 4432,
      "일본": 4433,
      "197": 4434,
      "가수": 4435,
      "196": 4436,
      "에는": 4437,
      "194": 4438,
      "적인": 4439,
      "10": 4440,
      "er": 4441,
      "사용": 4442,
      "으며": 4443,
      "195": 4444,
      "정치": 4445,
      "193": 4446,
      "학자": 4447,
      "적으로": 4448,
      "하다": 4449,
      "축구": 4450,
      "이라": 4451,
      "주의": 4452,
      "있는": 4453,
      "in": 4454,
      "된다": 4455,
      "스트": 4456,
      "202": 4457,
      "부터": 4458,
      "프로": 4459,
      "리아": 4460,
      "on": 4461,
      "17": 4462,
      "미국": 4463,
      "대한민국": 4464,
      "통령": 4465,
      "다음": 4466,
      "대통령": 4467,
      "지만": 4468,
      "12": 4469,
      "하기": 4470,
      "들이": 4471,
      "192": 4472,
      "00": 4473,
      "an": 4474,
      "일본의": 4475,
      "세계": 4476,
      "되어": 4477,
      "에게": 4478,
      "스의": 4479,
      "들은": 4480,
      "조선": 4481,
      "en": 4482,
      "공화": 4483,
      "1월": 4484,
      "프랑": 4485,
      "까지": 4486,
      "한국": 4487,
      "경우": 4488,
      "독일": 4489,
      "학교": 4490,
      "or": 4491,
      "같은": 4492,
      "에서는": 4493,
      "민주": 4494,
      "영화": 4495,
      "운동": 4496,
      "이후": 4497,
      "),": 4498,
      "야구": 4499,
      "16": 4500,
      "정치인": 4501,
      "15": 4502,
      "그리": 4503,
      "라이": 4504,
      "정부": 4505,
      "ar": 4506,
      ").": 4507,
      "면서": 4508,
      "ti": 4509,
      "하게": 4510,
      "번째": 4511,
      "그는": 4512,
      "시작": 4513,
      "국가": 4514,
      "시아": 4515,
      "프트": 4516,
      "190": 4517,
      "al": 4518,
      "되는": 4519,
      "따라": 4520,
      "으나": 4521,
      "인민": 4522,
      "가지": 4523,
      "같이": 4524,
      "들어": 4525,
      "되었": 4526,
      "때문": 4527,
      "또한": 4528,
      "사건": 4529,
      "다른": 4530,
      "es": 4531,
      "사이": 4532,
      "연구": 4533,
      "사람": 4534,
      "1일": 4535,
      "문화": 4536,
      "그러": 4537,
      "그의": 4538,
      "독립": 4539,
      "위해": 4540,
      "들의": 4541,
      "라고": 4542,
      "하며": 4543,
      "았다": 4544,
      "191": 4545,
      "중국": 4546,
      "들을": 4547,
      "he": 4548,
      "하지": 4549,
      "서울": 4550,
      "많은": 4551,
      "소프트": 4552,
      "지역": 4553,
      "레이": 4554,
      "가장": 4555,
      "공화국": 4556,
      "사망": 4557,
      "보기": 4558,
      "이는": 4559,
      "14": 4560,
      "영국의": 4561,
      "기념": 4562,
      "부분": 4563,
      "사회": 4564,
      "20년": 4565,
      "기도": 4566,
      "것이": 4567,
      "10월": 4568,
      "랜드": 4569,
      "ic": 4570,
      "라는": 4571,
      "영국": 4572,
      "st": 4573,
      "마이": 4574,
      "이라고": 4575,
      "것을": 4576,
      "과학": 4577,
      "이나": 4578,
      "그러나": 4579,
      "는데": 4580,
      "위원": 4581,
      "물리": 4582,
      "경제": 4583,
      "에도": 4584,
      "회의": 4585,
      "9월": 4586,
      "크로": 4587,
      "아니": 4588,
      "3월": 4589,
      "방송": 4590,
      "때문에": 4591,
      "하나": 4592,
      "13": 4593,
      "7월": 4594,
      "프랑스의": 4595,
      "것은": 4596,
      "12월": 4597,
      "개발": 4598,
      "전쟁": 4599,
      "5월": 4600,
      "해서": 4601,
      "8월": 4602,
      "기를": 4603,
      "나타": 4604,
      "포함": 4605,
      "모두": 4606,
      "189": 4607,
      "컴퓨": 4608,
      "기에": 4609,
      "음악": 4610,
      "이며": 4611,
      "6월": 4612,
      "감독": 4613,
      "언어": 4614,
      "함께": 4615,
      "문제": 4616,
      "대학교": 4617,
      "4월": 4618,
      "되고": 4619,
      "당시": 4620,
      "여러": 4621,
      "정의": 4622,
      "발생": 4623,
      "나라": 4624,
      "자유": 4625,
      "는다": 4626,
      "자신": 4627,
      "중화": 4628,
      "대표": 4629,
      "이러": 4630,
      "또는": 4631,
      "이스": 4632,
      "11월": 4633,
      "모든": 4634,
      "베르": 4635,
      "리아의": 4636,
      "컴퓨터": 4637,
      "it": 4638,
      "독일의": 4639,
      "현재": 4640,
      "at": 4641,
      "국민": 4642,
      "선거": 4643,
      "국제": 4644,
      "이를": 4645,
      "역사": 4646,
      "그리고": 4647,
      "이어": 4648,
      "시대": 4649,
      "이용": 4650,
      "is": 4651,
      "le": 4652,
      "통해": 4653,
      "18년": 4654,
      "2022년": 4655,
      "것이다": 4656,
      "2월": 4657,
      "일반": 4658,
      "발표": 4659,
      "의해": 4660,
      "지원": 4661,
      "인터": 4662,
      "윈도": 4663,
      "이름": 4664,
      "운영": 4665,
      "로마": 4666,
      "민주주의": 4667,
      "작가": 4668,
      "19년": 4669,
      "스타": 4670,
      "프로그": 4671,
      "ch": 4672,
      "관계": 4673,
      "tion": 4674,
      "개의": 4675,
      "되다": 4676,
      "소설": 4677,
      "of": 4678,
      "보다": 4679,
      "re": 4680,
      "이라는": 4681,
      "있으며": 4682,
      "이루": 4683,
      "기업": 4684,
      "대학": 4685,
      "데이": 4686,
      "세기": 4687,
      "전자": 4688,
      "프리": 4689,
      "명이": 4690,
      "이론": 4691,
      "최초": 4692,
      "졌다": 4693,
      "웨어": 4694,
      "등의": 4695,
      "함수": 4696,
      "인민공화국": 4697,
      "다음과": 4698,
      "있었다": 4699,
      "오스트": 4700,
      "2020년": 4701,
      "성우": 4702,
      "기념일": 4703,
      "ro": 4704,
      "러시아": 4705,
      "위한": 4706,
      "이상": 4707,
      "존재": 4708,
      "하면": 4709,
      "제2": 4710,
      "였다": 4711,
      "체제": 4712,
      "작품": 4713,
      "시스": 4714,
      "문학": 4715,
      "공간": 4716,
      "박정": 4717,
      "()": 4718,
      "도시": 4719,
      "2023년": 4720,
      "정보": 4721,
      "가능": 4722,
      "기술": 4723,
      "시간": 4724,
      "아이": 4725,
      "수도": 4726,
      "이러한": 4727,
      "이탈": 4728,
      "메이": 4729,
      "나다": 4730,
      "30": 4731,
      "리스": 4732,
      "윈도우": 4733,
      "0년대": 4734,
      "란드": 4735,
      "것으로": 4736,
      "유럽": 4737,
      "교육": 4738,
      "하지만": 4739,
      "성을": 4740,
      "프랑스": 4741,
      "주장": 4742,
      "박정희": 4743,
      "표현": 4744,
      "2021년": 4745,
      "마이크로": 4746,
      "25": 4747,
      "관련": 4748,
      "우스": 4749,
      "활동": 4750,
      "조선민주주의": 4751,
      "188": 4752,
      "등이": 4753,
      "리는": 4754,
      "일부": 4755,
      "작곡": 4756,
      "대해": 4757,
      "구성": 4758,
      "하면서": 4759,
      "도로": 4760,
      "요한": 4761,
      "이자": 4762,
      "인의": 4763,
      "el": 4764,
      "브라": 4765,
      "영어": 4766,
      "영향": 4767,
      "처음": 4768,
      "니아": 4769,
      "동안": 4770,
      "자가": 4771,
      "해당": 4772,
      "un": 4773,
      "지는": 4774,
      "ol": 4775,
      "집합": 4776,
      "공식": 4777,
      "발전": 4778,
      "정식": 4779,
      "영화배우": 4780,
      "스페": 4781,
      "하였고": 4782,
      "일어": 4783,
      "상을": 4784,
      "프로그램": 4785,
      "인구": 4786,
      "현대": 4787,
      "대부분": 4788,
      "게이": 4789,
      "이고": 4790,
      "의원": 4791,
      "이었다": 4792,
      "et": 4793,
      "특별": 4794,
      "거나": 4795,
      "새로": 4796,
      "리를": 4797,
      "화가": 4798,
      "3일": 4799,
      "발견": 4800,
      "방법": 4801,
      "중심": 4802,
      "중앙": 4803,
      "OS": 4804,
      "군인": 4805,
      "하이": 4806,
      "기의": 4807,
      "로서": 4808,
      "9일": 4809,
      "NA": 4810,
      "노무": 4811,
      "모델": 4812,
      "스는": 4813,
      "아르": 4814,
      "결과": 4815,
      "공산": 4816,
      "기가": 4817,
      "대전": 4818,
      "캐나다": 4819,
      "소프트웨어": 4820,
      "다시": 4821,
      "7일": 4822,
      "ac": 4823,
      "대로": 4824,
      "마이크로소프트": 4825,
      "ed": 4826,
      "기능": 4827,
      "고리": 4828,
      "출신": 4829,
      "000": 4830,
      "제국": 4831,
      "2003년": 4832,
      "노무현": 4833,
      "의미": 4834,
      "수가": 4835,
      "2일": 4836,
      "2002년": 4837,
      "수는": 4838,
      "자연": 4839,
      "했고": 4840,
      "지도": 4841,
      "수의": 4842,
      "186": 4843,
      "기록": 4844,
      "6일": 4845,
      "as": 4846,
      "등을": 4847,
      "자의": 4848,
      "수학": 4849,
      "24": 4850,
      "8일": 4851,
      "명의": 4852,
      "므로": 4853,
      "2018년": 4854,
      "인터넷": 4855,
      "이지": 4856,
      "작곡가": 4857,
      "187": 4858,
      "사실": 4859,
      "and": 4860,
      "om": 4861,
      "다양": 4862,
      "사를": 4863,
      "위치": 4864,
      "후보": 4865,
      "공화국의": 4866,
      "시키": 4867,
      "2004년": 4868,
      "력을": 4869,
      "설립": 4870,
      "장을": 4871,
      "형태": 4872,
      "시스템": 4873,
      "과정": 4874,
      "ing": 4875,
      "이에": 4876,
      "노동": 4877,
      "알려": 4878,
      "났다": 4879,
      "도의": 4880,
      "역시": 4881,
      "지를": 4882,
      "그레": 4883,
      "구조": 4884,
      "1990년": 4885,
      "운동가": 4886,
      "제1": 4887,
      "있었": 4888,
      "특히": 4889,
      "전달": 4890,
      "기는": 4891,
      "없다": 4892,
      "1991년": 4893,
      "수상": 4894,
      "the": 4895,
      "1989년": 4896,
      "탄생": 4897,
      "버전": 4898,
      "총리": 4899,
      "게임": 4900,
      "이루어": 4901,
      "대구": 4902,
      "기원": 4903,
      "학생": 4904,
      "2007년": 4905,
      "하기도": 4906,
      "새로운": 4907,
      "1995년": 4908,
      "위원회": 4909,
      "벡터": 4910,
      "분야": 4911,
      "정책": 4912,
      "기준": 4913,
      "종교": 4914,
      "소설가": 4915,
      "ation": 4916,
      "기본": 4917,
      "도록": 4918,
      "방정식": 4919,
      "행렬": 4920,
      "주로": 4921,
      "진다": 4922,
      "2008년": 4923,
      "되었고": 4924,
      "상태": 4925,
      "2019년": 4926,
      "보선": 4927,
      "비아": 4928,
      "이었": 4929,
      "ur": 4930,
      "력으로": 4931,
      "2000년": 4932,
      "1992년": 4933,
      "외부": 4934,
      "2009년": 4935,
      "식을": 4936,
      "있어": 4937,
      "로는": 4938,
      "윤보선": 4939,
      "11": 4940,
      "2016년": 4941,
      "성공": 4942,
      "1998년": 4943,
      "지방": 4944,
      "결정": 4945,
      "들과": 4946,
      "민족": 4947,
      "2014년": 4948,
      "2010년": 4949,
      "1993년": 4950,
      "1988년": 4951,
      "로부터": 4952,
      "교황": 4953,
      "아나": 4954,
      "베트": 4955,
      "il": 4956,
      "1994년": 4957,
      "인간": 4958,
      "에너": 4959,
      "우주": 4960,
      "이전": 4961,
      "출시": 4962,
      "민주당": 4963,
      "연방": 4964,
      "스가": 4965,
      "혁명": 4966,
      "생각": 4967,
      "랜드의": 4968,
      "법칙": 4969,
      "2005년": 4970,
      "2011년": 4971,
      "연합": 4972,
      "2017년": 4973,
      "us": 4974,
      "받아": 4975,
      "음력": 4976,
      "de": 4977,
      "각주": 4978,
      "관한": 4979,
      "슈타": 4980,
      "조선민주주의인민공화국": 4981,
      "1996년": 4982,
      "자를": 4983,
      "1997년": 4984,
      "같다": 4985,
      "베이": 4986,
      "생물": 4987,
      "표준": 4988,
      "에서도": 4989,
      "되지": 4990,
      "만들": 4991,
      "BS": 4992,
      "리에": 4993,
      "링크": 4994,
      "만들어": 4995,
      "1987년": 4996,
      "1945년": 4997,
      "물리학": 4998,
      "제공": 4999,
      "군사": 5000,
      "리그": 5001,
      "스크": 5002,
      "자는": 5003,
      "최고": 5004,
      "2006년": 5005,
      "그레고리": 5006,
      "화학": 5007,
      "통신": 5008,
      "이탈리아의": 5009,
      "자신의": 5010,
      "산업": 5011,
      "아미": 5012,
      "지구": 5013,
      "황제": 5014,
      "위를": 5015,
      "1999년": 5016,
      "지지": 5017,
      "도쿄": 5018,
      "2012년": 5019,
      "수를": 5020,
      "레일": 5021,
      "소련": 5022,
      "최초의": 5023,
      "우리": 5024,
      "그리스": 5025,
      "서로": 5026,
      "한편": 5027,
      "나는": 5028,
      "평가": 5029,
      "헌법": 5030,
      "도를": 5031,
      "1981년": 5032,
      "매우": 5033,
      "체의": 5034,
      "않는다": 5035,
      "잉글": 5036,
      "역학": 5037,
      "1980년": 5038,
      "기타": 5039,
      "주요": 5040,
      "다양한": 5041,
      "am": 5042,
      "마르": 5043,
      "):": 5044,
      "전기": 5045,
      "2001년": 5046,
      "없는": 5047,
      "에서의": 5048,
      "스를": 5049,
      "ay": 5050,
      "2015년": 5051,
      "가지고": 5052,
      "185": 5053,
      "실험": 5054,
      "윤년": 5055,
      "다는": 5056,
      "베토": 5057,
      "부르": 5058,
      "시장": 5059,
      "원자": 5060,
      "조사": 5061,
      "영향을": 5062,
      "베토벤": 5063,
      "제작": 5064,
      "기반": 5065,
      "출판": 5066,
      "계속": 5067,
      "요일": 5068,
      "베트남": 5069,
      "결합": 5070,
      "비판": 5071,
      "선언": 5072,
      "1983년": 5073,
      "디오": 5074,
      "상대": 5075,
      "인도": 5076,
      "화를": 5077,
      "2013년": 5078,
      "설명": 5079,
      "1985년": 5080,
      "ent": 5081,
      "받았다": 5082,
      "TV": 5083,
      "거의": 5084,
      "당의": 5085,
      "언론": 5086,
      "1979년": 5087,
      "아미노": 5088,
      "형성": 5089,
      "따라서": 5090,
      "사상": 5091,
      "아인": 5092,
      "참여": 5093,
      "오스트레일": 5094,
      "관리": 5095,
      "시에": 5096,
      "단체": 5097,
      "기업인": 5098,
      "들에게": 5099,
      "해당한다": 5100,
      "예를": 5101,
      "예술": 5102,
      "오피": 5103,
      "리눅": 5104,
      "1982년": 5105,
      "다음날": 5106,
      "인민공화국의": 5107,
      "많이": 5108,
      "문서": 5109,
      "분류": 5110,
      "1986년": 5111,
      "대중": 5112,
      "어떤": 5113,
      "항공": 5114,
      "반대": 5115,
      "했던": 5116,
      "1973년": 5117,
      "대회": 5118,
      "바이": 5119,
      "환경": 5120,
      "180": 5121,
      "위키": 5122,
      "케이": 5123,
      "경기": 5124,
      "권을": 5125,
      "The": 5126,
      "그룹": 5127,
      "도가": 5128,
      "사가": 5129,
      "가리": 5130,
      "내용": 5131,
      "개념": 5132,
      "과의": 5133,
      "운서": 5134,
      "사전": 5135,
      "서비": 5136,
      "애니": 5137,
      "왔다": 5138,
      "타이": 5139,
      "아니라": 5140,
      "아나운서": 5141,
      "시인": 5142,
      "조건": 5143,
      "계획": 5144,
      "네덜": 5145,
      "양자": 5146,
      "생산": 5147,
      "인해": 5148,
      "네덜란드": 5149,
      "정한": 5150,
      "1984년": 5151,
      "날에": 5152,
      "15일": 5153,
      "아인슈타": 5154,
      "서버": 5155,
      "기관": 5156,
      "단위": 5157,
      "차지": 5158,
      "리학": 5159,
      "사고": 5160,
      "전날": 5161,
      "파일": 5162,
      "올림": 5163,
      "계산": 5164,
      "따르": 5165,
      "부산": 5166,
      "사업": 5167,
      "완전": 5168,
      "으로서": 5169,
      "수학자": 5170,
      "통합": 5171,
      "행정": 5172,
      "스코": 5173,
      "아일": 5174,
      "않았다": 5175,
      "자로": 5176,
      "전체": 5177,
      "마지": 5178,
      "1946년": 5179,
      "메이션": 5180,
      "50": 5181,
      "》(": 5182,
      "실제": 5183,
      "있고": 5184,
      "그레고리력으로": 5185,
      "하였으며": 5186,
      "다음달": 5187,
      "100": 5188,
      "르트": 5189,
      "이유": 5190,
      "가운": 5191,
      "조지": 5192,
      "거리": 5193,
      "자기": 5194,
      "윤년일": 5195,
      "아시아": 5196,
      "중국의": 5197,
      "ut": 5198,
      "스터": 5199,
      "PC": 5200,
      "장이": 5201,
      "제2차": 5202,
      "em": 5203,
      "생활": 5204,
      "아닌": 5205,
      "여기": 5206,
      "으로부터": 5207,
      "184": 5208,
      "다고": 5209,
      "성이": 5210,
      "어를": 5211,
      "워드": 5212,
      "유명": 5213,
      "1949년": 5214,
      "마지막": 5215,
      "조직": 5216,
      "해야": 5217,
      "1960년": 5218,
      "아미노산": 5219,
      "가운데": 5220,
      "1974년": 5221,
      "ri": 5222,
      "개인": 5223,
      "연주": 5224,
      "기로": 5225,
      "기사": 5226,
      "티나": 5227,
      "처럼": 5228,
      "하자": 5229,
      "대신": 5230,
      "1975년": 5231,
      "한국의": 5232,
      "했으며": 5233,
      "물질": 5234,
      "추가": 5235,
      "1963년": 5236,
      "버지": 5237,
      "기원전": 5238,
      "고려": 5239,
      "위의": 5240,
      "1972년": 5241,
      "되었으며": 5242,
      "에너지": 5243,
      "스탄": 5244,
      "오픈": 5245,
      "유지": 5246,
      "철도": 5247,
      "초기": 5248,
      "전투": 5249,
      "1971년": 5250,
      "1968년": 5251,
      "러시아의": 5252,
      "김성": 5253,
      "비롯": 5254,
      "진행": 5255,
      "영화감독": 5256,
      "남북": 5257,
      "됐다": 5258,
      "래퍼": 5259,
      "요리": 5260,
      "1969년": 5261,
      "os": 5262,
      "그가": 5263,
      "이미": 5264,
      "물리학자": 5265,
      "그래": 5266,
      "중요한": 5267,
      "1962년": 5268,
      "애니메이션": 5269,
      "스키": 5270,
      "제국의": 5271,
      "183": 5272,
      "5일": 5273,
      "직접": 5274,
      "통일": 5275,
      "필요": 5276,
      "작용": 5277,
      "1977년": 5278,
      "스포": 5279,
      "으로는": 5280,
      "간의": 5281,
      "취임": 5282,
      "처음으로": 5283,
      "결국": 5284,
      "대상": 5285,
      "월드": 5286,
      "1970년": 5287,
      "1976년": 5288,
      "1950년": 5289,
      "ber": 5290,
      "국왕": 5291,
      "으로써": 5292,
      "않은": 5293,
      "16일": 5294,
      "ul": 5295,
      "교회": 5296,
      "국회": 5297,
      "철학자": 5298,
      "코드": 5299,
      "없이": 5300,
      "아르헨": 5301,
      "높은": 5302,
      "대하여": 5303,
      "인은": 5304,
      "ag": 5305,
      "설치": 5306,
      "..": 5307,
      "방식": 5308,
      "1961년": 5309,
      "이로": 5310,
      "2세": 5311,
      "사의": 5312,
      "의회": 5313,
      "트로": 5314,
      "1948년": 5315,
      "1978년": 5316,
      "1952년": 5317,
      "25일": 5318,
      "명을": 5319,
      "보통": 5320,
      "중에": 5321,
      "1965년": 5322,
      "점을": 5323,
      "26일": 5324,
      "개통": 5325,
      "교수": 5326,
      "14일": 5327,
      "공동": 5328,
      "연결": 5329,
      "열린": 5330,
      "하려": 5331,
      "12일": 5332,
      "개최": 5333,
      "규모": 5334,
      "자치": 5335,
      "제3": 5336,
      "프레": 5337,
      "공산당": 5338,
      "ig": 5339,
      "않고": 5340,
      "1세": 5341,
      "ver": 5342,
      "공개": 5343,
      "국회의": 5344,
      "기구": 5345,
      "역할": 5346,
      "자료": 5347,
      "정권": 5348,
      "표기": 5349,
      "한글": 5350,
      "27일": 5351,
      "HT": 5352,
      "좌표": 5353,
      "리눅스": 5354,
      "In": 5355,
      "발달": 5356,
      "음을": 5357,
      "한다는": 5358,
      "중화인민공화국": 5359,
      "기계": 5360,
      "도입": 5361,
      "ce": 5362,
      "고대": 5363,
      "백과": 5364,
      "크게": 5365,
      "데이터": 5366,
      "30일": 5367,
      "노벨": 5368,
      "문을": 5369,
      "아프리": 5370,
      "이란": 5371,
      "하였으나": 5372,
      "공격": 5373,
      "돌아": 5374,
      "하던": 5375,
      "보고": 5376,
      "유대": 5377,
      "20일": 5378,
      "th": 5379,
      "되면서": 5380,
      "이의": 5381,
      "하는데": 5382,
      "1936년": 5383,
      "전국": 5384,
      "정을": 5385,
      "1947년": 5386,
      "아프리카": 5387,
      "각각": 5388,
      "소수": 5389,
      "실시": 5390,
      "유엔": 5391,
      "등장": 5392,
      "스와": 5393,
      "페르": 5394,
      "정치가": 5395,
      "179": 5396,
      "11일": 5397,
      "모리": 5398,
      "아버지": 5399,
      "10일": 5400,
      "사용자": 5401,
      "40": 5402,
      "인다": 5403,
      "인물": 5404,
      "1940년": 5405,
      "중화민": 5406,
      "변화": 5407,
      "1964년": 5408,
      "올림픽": 5409,
      "브루": 5410,
      "방송인": 5411,
      "아르헨티나": 5412,
      "이야": 5413,
      "정당": 5414,
      "4일": 5415,
      "op": 5416,
      "들에": 5417,
      "인이": 5418,
      "지에": 5419,
      "평화": 5420,
      "때문이다": 5421,
      "독립운동가": 5422,
      "일반적으로": 5423,
      "22일": 5424,
      "ML": 5425,
      "가입": 5426,
      "스웨": 5427,
      "지고": 5428,
      "18일": 5429,
      "소스": 5430,
      "1955년": 5431,
      "id": 5432,
      "아래": 5433,
      "였던": 5434,
      "철학": 5435,
      "1967년": 5436,
      "기독": 5437,
      "선형": 5438,
      "있던": 5439,
      "플로": 5440,
      "1930년": 5441,
      ".)": 5442,
      "23일": 5443,
      "km": 5444,
      "않는": 5445,
      "요구": 5446,
      "182": 5447,
      "기독교": 5448,
      "ra": 5449,
      "스티": 5450,
      "한국어": 5451,
      "im": 5452,
      "내는": 5453,
      "문자": 5454,
      "방향": 5455,
      "상당": 5456,
      "외교": 5457,
      "이르": 5458,
      "피아": 5459,
      "BC": 5460,
      "브리": 5461,
      "선출": 5462,
      "성질": 5463,
      "자동": 5464,
      "제외": 5465,
      "형식": 5466,
      "희극": 5467,
      "개국": 5468,
      "방문": 5469,
      "변경": 5470,
      "일으": 5471,
      "전하": 5472,
      "for": 5473,
      "군의": 5474,
      "되며": 5475,
      "사무": 5476,
      "아라": 5477,
      "일제": 5478,
      "1937년": 5479,
      "스포츠": 5480,
      "요소": 5481,
      "원이": 5482,
      "따르면": 5483,
      "DNA": 5484,
      "부의": 5485,
      "잉글랜드의": 5486,
      "오피스": 5487,
      "력이": 5488,
      "선을": 5489,
      "베르크": 5490,
      "스웨덴": 5491,
      "28일": 5492,
      "른다": 5493,
      "리히": 5494,
      "메리": 5495,
      "일러": 5496,
      "제품": 5497,
      "가는": 5498,
      "나치": 5499,
      "렸다": 5500,
      "만든": 5501,
      "대부분의": 5502,
      "(,": 5503,
      "단백": 5504,
      "19일": 5505,
      "21일": 5506,
      "29일": 5507,
      "대의": 5508,
      "비행": 5509,
      "신문": 5510,
      "원의": 5511,
      "24일": 5512,
      "23": 5513,
      "17일": 5514,
      "시절": 5515,
      "1941년": 5516,
      "1938년": 5517,
      "단백질": 5518,
      "리가": 5519,
      "원소": 5520,
      "전문": 5521,
      "있는데": 5522,
      "음악가": 5523,
      "다가": 5524,
      "달러": 5525,
      "분석": 5526,
      "상의": 5527,
      "평양": 5528,
      "달리": 5529,
      "소비": 5530,
      "시민": 5531,
      "임을": 5532,
      "해석": 5533,
      "1933년": 5534,
      "공항": 5535,
      "류의": 5536,
      "마크": 5537,
      "브라질": 5538,
      "않았": 5539,
      "와의": 5540,
      "플라": 5541,
      "1942년": 5542,
      "13일": 5543,
      "ci": 5544,
      "만에": 5545,
      "서는": 5546,
      "조약": 5547,
      "포르": 5548,
      ".\"": 5549,
      "ter": 5550,
      "고등": 5551,
      "1944년": 5552,
      "리즈": 5553,
      "윌리": 5554,
      "이와": 5555,
      "정도": 5556,
      "한나라": 5557,
      "확장": 5558,
      "생성": 5559,
      "테러": 5560,
      "1959년": 5561,
      "1939년": 5562,
      "존재한다": 5563,
      "um": 5564,
      "최초로": 5565,
      "젝트": 5566,
      "추진": 5567,
      "1934년": 5568,
      "개혁": 5569,
      "건설": 5570,
      "어는": 5571,
      "이승": 5572,
      "자인": 5573,
      "1943년": 5574,
      "다르": 5575,
      "버트": 5576,
      "주민": 5577,
      "체계": 5578,
      "행동": 5579,
      "1932년": 5580,
      "적이": 5581,
      "크리스": 5582,
      "통계": 5583,
      "1958년": 5584,
      "구역": 5585,
      "했으나": 5586,
      "1920년": 5587,
      "스페인의": 5588,
      "기간": 5589,
      "이가": 5590,
      "인정": 5591,
      "시작했다": 5592,
      "유리": 5593,
      "이때": 5594,
      "장관": 5595,
      "쿠바": 5596,
      "1953년": 5597,
      "1954년": 5598,
      "og": 5599,
      "기초": 5600,
      "수립": 5601,
      "애플": 5602,
      "지금": 5603,
      "1966년": 5604,
      "구간": 5605,
      "대해서": 5606,
      "정신": 5607,
      "캐나다의": 5608,
      "상황": 5609,
      "성립": 5610,
      "페이지": 5611,
      "이탈리아": 5612,
      "고전": 5613,
      "북한": 5614,
      "사는": 5615,
      "주는": 5616,
      "있다고": 5617,
      "1956년": 5618,
      "si": 5619,
      "과학자": 5620,
      "드는": 5621,
      "물을": 5622,
      "세포": 5623,
      "양의": 5624,
      "이동": 5625,
      "이해": 5626,
      "작업": 5627,
      "카를": 5628,
      "어의": 5629,
      "사이에": 5630,
      "게이머": 5631,
      "특별시": 5632,
      "윌리엄": 5633,
      "성의": 5634,
      "원을": 5635,
      "졸업": 5636,
      "지의": 5637,
      "참고": 5638,
      "혹은": 5639,
      "프로젝트": 5640,
      "to": 5641,
      "바로": 5642,
      "반응": 5643,
      "회장": 5644,
      "후에": 5645,
      "프로게이머": 5646,
      "Day": 5647,
      "레오": 5648,
      "시켰": 5649,
      "연산": 5650,
      "제를": 5651,
      "1924년": 5652,
      "ht": 5653,
      "가와": 5654,
      "레스": 5655,
      "머니": 5656,
      "der": 5657,
      "가족": 5658,
      "나오": 5659,
      "응용": 5660,
      "주교": 5661,
      "》,": 5662,
      "명칭": 5663,
      "오늘": 5664,
      "찾아": 5665,
      "김영": 5666,
      "반도": 5667,
      "기준으로": 5668,
      "오스트레일리아": 5669,
      "내각": 5670,
      "널리": 5671,
      "선택": 5672,
      "회원": 5673,
      "받은": 5674,
      "크라이": 5675,
      "1957년": 5676,
      "동물": 5677,
      "임스": 5678,
      "1951년": 5679,
      "하나의": 5680,
      "ie": 5681,
      "구분": 5682,
      "렇게": 5683,
      "위에": 5684,
      "있게": 5685,
      "태어": 5686,
      "특징": 5687,
      "사용하는": 5688,
      "St": 5689,
      "광역시": 5690,
      "로스": 5691,
      "소속": 5692,
      "작은": 5693,
      "1928년": 5694,
      "RNA": 5695,
      "ec": 5696,
      "목록": 5697,
      "민당": 5698,
      "어로": 5699,
      "이것은": 5700,
      "임시": 5701,
      "증가": 5702,
      "했지만": 5703,
      "1926년": 5704,
      "여기서": 5705,
      "60": 5706,
      "국무": 5707,
      "오르": 5708,
      "커널": 5709,
      "하거나": 5710,
      "181": 5711,
      "이름을": 5712,
      "80": 5713,
      "성장": 5714,
      "스테": 5715,
      "적용": 5716,
      "체가": 5717,
      "서비스": 5718,
      "희극인": 5719,
      "군이": 5720,
      "식이": 5721,
      "1927년": 5722,
      "ow": 5723,
      "대를": 5724,
      "동시에": 5725,
      "전에": 5726,
      "지정": 5727,
      "떨어": 5728,
      "야마": 5729,
      "의한": 5730,
      "해양": 5731,
      "1929년": 5732,
      "운영체제": 5733,
      "역할을": 5734,
      "HTML": 5735,
      "라인": 5736,
      "번역": 5737,
      "비교": 5738,
      "일보": 5739,
      "프로세": 5740,
      "178": 5741,
      "사이트": 5742,
      "베르트": 5743,
      "중심으로": 5744,
      "성과": 5745,
      "사이의": 5746,
      "가진": 5747,
      "계의": 5748,
      "에르": 5749,
      "이기": 5750,
      "자와": 5751,
      "적분": 5752,
      "톨릭": 5753,
      "정부의": 5754,
      "조선민주주의인민공화국의": 5755,
      "hy": 5756,
      "관심": 5757,
      "냈다": 5758,
      "두고": 5759,
      "보여": 5760,
      "상수": 5761,
      "실패": 5762,
      "증명": 5763,
      "플레이": 5764,
      "ad": 5765,
      "가톨릭": 5766,
      "등으로": 5767,
      "로봇": 5768,
      "전통": 5769,
      "회담": 5770,
      "있다는": 5771,
      "ine": 5772,
      "원은": 5773,
      "혔다": 5774,
      "라엘": 5775,
      "식민": 5776,
      "외국": 5777,
      "의사": 5778,
      "논문": 5779,
      "미디": 5780,
      "이사": 5781,
      "장치": 5782,
      "파트": 5783,
      "연구소": 5784,
      "갔다": 5785,
      "관측": 5786,
      "교향": 5787,
      "미술": 5788,
      "여성": 5789,
      "평균": 5790,
      "중화민국": 5791,
      "21": 5792,
      "당선": 5793,
      "린다": 5794,
      "부를": 5795,
      "비슷": 5796,
      "한다고": 5797,
      "1931년": 5798,
      "수많은": 5799,
      "스토": 5800,
      "장면": 5801,
      "재판": 5802,
      "제임스": 5803,
      "현상": 5804,
      "독립기념일": 5805,
      "이스라엘": 5806,
      "김정": 5807,
      "마다": 5808,
      "만화": 5809,
      "바둑": 5810,
      "받고": 5811,
      "학문": 5812,
      "결혼": 5813,
      "배포": 5814,
      "속도": 5815,
      "어가": 5816,
      "중근": 5817,
      "편집": 5818,
      "20세기": 5819,
      "윤보선은": 5820,
      "Pro": 5821,
      "ia": 5822,
      "리오": 5823,
      "정리": 5824,
      "크너": 5825,
      "통과": 5826,
      "히로": 5827,
      "1919년": 5828,
      "경찰": 5829,
      "농업": 5830,
      "성에": 5831,
      "수행": 5832,
      "스로": 5833,
      "우크라이": 5834,
      "유도": 5835,
      "제안": 5836,
      "채택": 5837,
      "대통령이": 5838,
      "정부는": 5839,
      "되기": 5840,
      "등에": 5841,
      "받았": 5842,
      "치는": 5843,
      "폴란드": 5844,
      "177": 5845,
      "스페인": 5846,
      "대체": 5847,
      "스카": 5848,
      "시리즈": 5849,
      "함으로써": 5850,
      "비롯한": 5851,
      "미분": 5852,
      "수준": 5853,
      "싱어": 5854,
      "주어": 5855,
      "라이터": 5856,
      "브루크너": 5857,
      "ot": 5858,
      "나가": 5859,
      "정상": 5860,
      "호를": 5861,
      "1923년": 5862,
      "주도": 5863,
      "차원": 5864,
      "26": 5865,
      "사인": 5866,
      "처리": 5867,
      "1925년": 5868,
      "안중근": 5869,
      "알렉": 5870,
      "체를": 5871,
      "단계": 5872,
      "서를": 5873,
      "시코": 5874,
      "실행": 5875,
      "이런": 5876,
      "이주": 5877,
      "일이": 5878,
      "있을": 5879,
      "제시": 5880,
      "ap": 5881,
      "스위": 5882,
      "아테": 5883,
      "어린": 5884,
      "었고": 5885,
      "정확": 5886,
      "지가": 5887,
      "1922년": 5888,
      "이었던": 5889,
      "29": 5890,
      "70": 5891,
      "KBS": 5892,
      "공학": 5893,
      "따른": 5894,
      "아메리": 5895,
      "위하여": 5896,
      "진화": 5897,
      "헝가리": 5898,
      "주의자": 5899,
      "SF": 5900,
      "과는": 5901,
      "다이": 5902,
      "장의": 5903,
      "조합": 5904,
      "협회": 5905,
      "1935년": 5906,
      "오늘날": 5907,
      "ve": 5908,
      "그를": 5909,
      "모토": 5910,
      "소년": 5911,
      "장으로": 5912,
      "해결": 5913,
      "호가": 5914,
      "싱어송": 5915,
      "고속": 5916,
      "난다": 5917,
      "자리": 5918,
      "토시": 5919,
      "1917년": 5920,
      "ab": 5921,
      "그림": 5922,
      "보수": 5923,
      "부가": 5924,
      "슬로": 5925,
      "저항": 5926,
      "네덜란드의": 5927,
      "대사": 5928,
      "북도": 5929,
      "실수": 5930,
      "제도": 5931,
      "지로": 5932,
      "텔레": 5933,
      "싱어송라이터": 5934,
      "FA": 5935,
      "ir": 5936,
      "국내": 5937,
      "더욱": 5938,
      "드러": 5939,
      "밖에": 5940,
      "법을": 5941,
      "유사": 5942,
      "제한": 5943,
      "하드": 5944,
      "했는데": 5945,
      "알려져": 5946,
      "한나라당": 5947,
      "ist": 5948,
      "교통": 5949,
      "유일": 5950,
      "이기도": 5951,
      "1918년": 5952,
      "사용한다": 5953,
      "38": 5954,
      "국방": 5955,
      "세이": 5956,
      "장에서": 5957,
      "최근": 5958,
      "우크라이나": 5959,
      "NU": 5960,
      "가정": 5961,
      "만을": 5962,
      "시험": 5963,
      "지속": 5964,
      "정부가": 5965,
      "가까": 5966,
      "공업": 5967,
      "관광": 5968,
      "기상": 5969,
      "대가": 5970,
      "라도": 5971,
      "외에도": 5972,
      "접근": 5973,
      "포함한": 5974,
      "오스트리아의": 5975,
      "무한": 5976,
      "법률": 5977,
      "서양": 5978,
      "센터": 5979,
      "여행": 5980,
      "이드": 5981,
      "세계에서": 5982,
      "가능한": 5983,
      "Un": 5984,
      "아의": 5985,
      "질량": 5986,
      "피해": 5987,
      "완전히": 5988,
      "28": 5989,
      "라면": 5990,
      "시행": 5991,
      "투표": 5992,
      "관계를": 5993,
      "시키는": 5994,
      "기존": 5995,
      "대선": 5996,
      "미터": 5997,
      "어머니": 5998,
      "경우도": 5999,
      "수상자": 6000,
      "스웨덴의": 6001,
      "교향곡": 6002,
      "노르": 6003,
      "루이": 6004,
      "반면": 6005,
      "적은": 6006,
      "지나": 6007,
      "플랑": 6008,
      "국회의원": 6009,
      "자동차": 6010,
      "IS": 6011,
      "기와": 6012,
      "상호": 6013,
      "싱턴": 6014,
      "영토": 6015,
      "유래": 6016,
      "일을": 6017,
      "적을": 6018,
      "초대": 6019,
      "조선의": 6020,
      "Al": 6021,
      "od": 6022,
      "다루": 6023,
      "리고": 6024,
      "부인": 6025,
      "상징": 6026,
      "인천": 6027,
      "1905년": 6028,
      "ess": 6029,
      "브라우": 6030,
      "ein": 6031,
      "관찰": 6032,
      "바탕": 6033,
      "분자": 6034,
      "불교": 6035,
      "아들": 6036,
      "워싱턴": 6037,
      "이트": 6038,
      "지리": 6039,
      "체는": 6040,
      "특정": 6041,
      "했다는": 6042,
      "로버트": 6043,
      "말한다": 6044,
      "발명": 6045,
      "안을": 6046,
      "임명": 6047,
      ")'": 6048,
      "남도": 6049,
      "니다": 6050,
      "마을": 6051,
      "만약": 6052,
      "모습": 6053,
      "이들": 6054,
      "이민": 6055,
      "이토": 6056,
      "지하": 6057,
      "해방": 6058,
      "형을": 6059,
      "1921년": 6060,
      "제1차": 6061,
      "만이": 6062,
      "시기": 6063,
      "익스": 6064,
      "인을": 6065,
      "인지": 6066,
      "했다고": 6067,
      "사건이": 6068,
      "월드컵": 6069,
      "플랑크": 6070,
      "PD": 6071,
      "규정": 6072,
      "규칙": 6073,
      "기후": 6074,
      "부는": 6075,
      "인사": 6076,
      "재단": 6077,
      "종료": 6078,
      "주었다": 6079,
      "하이젠": 6080,
      "있어서": 6081,
      "GNU": 6082,
      "단순": 6083,
      "만큼": 6084,
      "이들은": 6085,
      "중요": 6086,
      "홍콩": 6087,
      "후반": 6088,
      "대통령의": 6089,
      "프로그래": 6090,
      "지도자": 6091,
      "만족": 6092,
      "변환": 6093,
      "어느": 6094,
      "에트": 6095,
      "움직": 6096,
      "인류": 6097,
      "작성": 6098,
      "점이": 6099,
      "지배": 6100,
      "표시": 6101,
      "행사": 6102,
      "운동을": 6103,
      "31일": 6104,
      "경영": 6105,
      "대륙": 6106,
      "동의": 6107,
      "소가": 6108,
      "장에": 6109,
      "총재": 6110,
      "파리": 6111,
      "36": 6112,
      "계를": 6113,
      "로그": 6114,
      "유전": 6115,
      "이치": 6116,
      "자주": 6117,
      "클라": 6118,
      "문제를": 6119,
      "ity": 6120,
      "하이젠베르크": 6121,
      "강점": 6122,
      "것에": 6123,
      "부에": 6124,
      "심리학": 6125,
      "베이직": 6126,
      "90": 6127,
      "En": 6128,
      "Re": 6129,
      "다만": 6130,
      "명예": 6131,
      "불구": 6132,
      "식은": 6133,
      "없었다": 6134,
      "유한": 6135,
      "임의": 6136,
      "주변": 6137,
      "1916년": 6138,
      "일반적인": 6139,
      "오스트리아": 6140,
      "32": 6141,
      "권한": 6142,
      "뉴욕": 6143,
      "많다": 6144,
      "삼각": 6145,
      "시킨": 6146,
      "안에": 6147,
      "있지만": 6148,
      "출생": 6149,
      "트리": 6150,
      "1910년": 6151,
      "나라의": 6152,
      "An": 6153,
      "qu": 6154,
      "te": 6155,
      "계열": 6156,
      "국립": 6157,
      "기자": 6158,
      "메모리": 6159,
      "물의": 6160,
      "폐지": 6161,
      "회사": 6162,
      "176": 6163,
      "und": 6164,
      "브라우저": 6165,
      "비전": 6166,
      "서관": 6167,
      "선이": 6168,
      "제4": 6169,
      "집단": 6170,
      "쪽으로": 6171,
      "확인": 6172,
      "1912년": 6173,
      "선거에서": 6174,
      "격을": 6175,
      "만의": 6176,
      "무역": 6177,
      "뮤지": 6178,
      "에드": 6179,
      "자이": 6180,
      "지적": 6181,
      "친구": 6182,
      "이상의": 6183,
      "과거": 6184,
      "니스": 6185,
      "등과": 6186,
      "멕시코": 6187,
      "수정": 6188,
      "시켜": 6189,
      "야당": 6190,
      "점에서": 6191,
      "ub": 6192,
      "드로": 6193,
      "밝혔다": 6194,
      "스파": 6195,
      "시도": 6196,
      "장은": 6197,
      "제가": 6198,
      "즈카": 6199,
      "최대": 6200,
      "시대의": 6201,
      "데이비": 6202,
      "시켰다": 6203,
      "가르": 6204,
      "되기도": 6205,
      "루스": 6206,
      "있도록": 6207,
      "유명한": 6208,
      "대응": 6209,
      "디지": 6210,
      "명령": 6211,
      "오일러": 6212,
      "워크": 6213,
      "육군": 6214,
      "체결": 6215,
      "출범": 6216,
      "클리": 6217,
      "태풍": 6218,
      "그녀": 6219,
      "바르": 6220,
      "벨기에": 6221,
      "소를": 6222,
      "이렇게": 6223,
      "지에서": 6224,
      "직을": 6225,
      "했을": 6226,
      "사회주의": 6227,
      "중화인민공화국의": 6228,
      "기능을": 6229,
      "알려진": 6230,
      "3세": 6231,
      "95": 6232,
      "보호": 6233,
      "승리": 6234,
      "요시": 6235,
      "중단": 6236,
      "지휘": 6237,
      "160": 6238,
      "브라질의": 6239,
      "농구": 6240,
      "베이스": 6241,
      "분리": 6242,
      "분포": 6243,
      "유전자": 6244,
      "톨킨": 6245,
      "ard": 6246,
      "1907년": 6247,
      "Ch": 6248,
      "II": 6249,
      "MBC": 6250,
      "론을": 6251,
      "발사": 6252,
      "브로": 6253,
      "언급": 6254,
      "연속": 6255,
      "제정": 6256,
      "체코": 6257,
      "하도록": 6258,
      "19세기": 6259,
      "all": 6260,
      "력의": 6261,
      "만화가": 6262,
      "아카": 6263,
      "원래": 6264,
      "충돌": 6265,
      "사람들이": 6266,
      "갖고": 6267,
      "나카": 6268,
      "들도": 6269,
      "부른다": 6270,
      "여겨": 6271,
      "영역": 6272,
      "우승": 6273,
      "제로": 6274,
      "탄핵": 6275,
      "팔레": 6276,
      "사용할": 6277,
      "27": 6278,
      "Mar": 6279,
      "근대": 6280,
      "매킨": 6281,
      "바다": 6282,
      "사와": 6283,
      "세르": 6284,
      "수로": 6285,
      "스칼": 6286,
      "창당": 6287,
      "프란": 6288,
      "전자기": 6289,
      "과정에서": 6290,
      "오스트레일리아의": 6291,
      "소비에트": 6292,
      "34": 6293,
      "김대중": 6294,
      "논란": 6295,
      "비디오": 6296,
      "성은": 6297,
      "이므로": 6298,
      "ell": 6299,
      "소련의": 6300,
      "아인슈타인은": 6301,
      "구글": 6302,
      "군을": 6303,
      "물이": 6304,
      "부정": 6305,
      "비해": 6306,
      "윤치": 6307,
      "종의": 6308,
      "투갈": 6309,
      "필리": 6310,
      "사용된다": 6311,
      "tic": 6312,
      "가지로": 6313,
      "자신이": 6314,
      "게이츠": 6315,
      "피아노": 6316,
      "아메리카": 6317,
      "불구하고": 6318,
      "ust": 6319,
      "강의": 6320,
      "것과": 6321,
      "라스": 6322,
      "리스트": 6323,
      "부족": 6324,
      "안정": 6325,
      "으므로": 6326,
      "경우가": 6327,
      "이용하여": 6328,
      "스코틀": 6329,
      "디지털": 6330,
      "그레이": 6331,
      "네이": 6332,
      "무리": 6333,
      "있으나": 6334,
      "ational": 6335,
      "좌표계": 6336,
      ".(": 6337,
      "개선": 6338,
      "낮은": 6339,
      "네트": 6340,
      "동문": 6341,
      "목표": 6342,
      "문헌": 6343,
      "뿐만": 6344,
      "사진": 6345,
      "ack": 6346,
      "아일랜드": 6347,
      "그래픽": 6348,
      "포르투갈": 6349,
      "500": 6350,
      "낸다": 6351,
      "수록": 6352,
      "아가": 6353,
      "입자": 6354,
      "자살": 6355,
      "종류": 6356,
      "쳤다": 6357,
      "카라": 6358,
      "판매": 6359,
      "대통령은": 6360,
      "일어나": 6361,
      "유대인": 6362,
      "이야기": 6363,
      "미디어": 6364,
      "강원": 6365,
      "개월": 6366,
      "공원": 6367,
      "금을": 6368,
      "기호": 6369,
      "들로": 6370,
      "바꾸": 6371,
      "식의": 6372,
      "아내": 6373,
      "으면": 6374,
      "크라": 6375,
      "호선": 6376,
      "양자역학": 6377,
      "mm": 6378,
      "간단": 6379,
      "남부": 6380,
      "마리": 6381,
      "사라": 6382,
      "삼성": 6383,
      "스케": 6384,
      "스턴": 6385,
      "시각": 6386,
      "오래": 6387,
      "페이스": 6388,
      "폭발": 6389,
      "강한": 6390,
      "도에": 6391,
      "말했다": 6392,
      "사랑": 6393,
      "설계": 6394,
      "시설": 6395,
      "조인": 6396,
      "종합": 6397,
      "추락": 6398,
      "축구선수": 6399,
      "대한민국에서": 6400,
      "조선일보": 6401,
      "알렉산": 6402,
      "나이": 6403,
      "드라": 6404,
      "이슬": 6405,
      "인공": 6406,
      "제기": 6407,
      "학과": 6408,
      "화된": 6409,
      "효과": 6410,
      "175": 6411,
      "마이클": 6412,
      "언론인": 6413,
      "매킨토시": 6414,
      "Pr": 6415,
      "ph": 6416,
      "공휴": 6417,
      "당이": 6418,
      "바이러": 6419,
      "베를": 6420,
      "복잡": 6421,
      "엘리": 6422,
      "오브": 6423,
      "의하여": 6424,
      "치를": 6425,
      "파이어": 6426,
      "것이었다": 6427,
      "정보를": 6428,
      "잉글랜드": 6429,
      "22": 6430,
      "di": 6431,
      "동맹": 6432,
      "력은": 6433,
      "만주": 6434,
      "박근": 6435,
      "사로": 6436,
      "암살": 6437,
      "여자": 6438,
      "영웅": 6439,
      "차례": 6440,
      "합성": 6441,
      "정치적": 6442,
      "번째로": 6443,
      "대표적인": 6444,
      "가능하다": 6445,
      "형태로": 6446,
      "개정": 6447,
      "거주": 6448,
      "경상": 6449,
      "바그": 6450,
      "불리": 6451,
      "오스": 6452,
      "천문": 6453,
      "크래": 6454,
      "사용하여": 6455,
      "1900년": 6456,
      "1901년": 6457,
      "1908년": 6458,
      "프리드": 6459,
      "박정희는": 6460,
      "백과사전": 6461,
      "익스플로": 6462,
      "간다": 6463,
      "동일": 6464,
      "발행": 6465,
      "불리는": 6466,
      "전을": 6467,
      "제5": 6468,
      "주기": 6469,
      "창립": 6470,
      "천문학": 6471,
      "경우에는": 6472,
      "운동량": 6473,
      "부르크": 6474,
      "아르헨티나의": 6475,
      "익스플로러": 6476,
      "것도": 6477,
      "로드": 6478,
      "리처": 6479,
      "마찬": 6480,
      "보는": 6481,
      "부아": 6482,
      "아키": 6483,
      "있기": 6484,
      "클린": 6485,
      "학의": 6486,
      "ich": 6487,
      "이유로": 6488,
      "35": 6489,
      "KB": 6490,
      "것이라고": 6491,
      "공을": 6492,
      "그런": 6493,
      "도와": 6494,
      "되면": 6495,
      "밝혀": 6496,
      "올리": 6497,
      "준비": 6498,
      "클레": 6499,
      "한자": 6500,
      "해안": 6501,
      "회를": 6502,
      "아니다": 6503,
      "비아의": 6504,
      "Ne": 6505,
      "se": 6506,
      "건축": 6507,
      "당을": 6508,
      "디스": 6509,
      "블루": 6510,
      "왕국": 6511,
      "전이": 6512,
      "정도로": 6513,
      "활동을": 6514,
      "팔레스타": 6515,
      "Ma": 6516,
      "거부": 6517,
      "내려": 6518,
      "물은": 6519,
      "박사": 6520,
      "원에": 6521,
      "인권": 6522,
      "저작": 6523,
      "주석": 6524,
      "태양": 6525,
      "폭탄": 6526,
      "박근혜": 6527,
      "FI": 6528,
      "단일": 6529,
      "명으로": 6530,
      "무기": 6531,
      "무라": 6532,
      "아직": 6533,
      "어도": 6534,
      "장기": 6535,
      "점령": 6536,
      "축구인": 6537,
      "베토벤은": 6538,
      "com": 6539,
      "강화": 6540,
      "국경": 6541,
      "보면": 6542,
      "육상": 6543,
      "자들이": 6544,
      "전히": 6545,
      "총독": 6546,
      "한반도": 6547,
      "국제공항": 6548,
      "ung": 6549,
      "뮤지컬": 6550,
      "++": 6551,
      "런던": 6552,
      "어떻": 6553,
      "참가": 6554,
      "합의": 6555,
      "서울특별시": 6556,
      "지원을": 6557,
      "일어났다": 6558,
      "건국": 6559,
      "다윈": 6560,
      "대에": 6561,
      "받는": 6562,
      "사태": 6563,
      "세를": 6564,
      "스케이": 6565,
      "어려": 6566,
      "전류": 6567,
      "이라크": 6568,
      "ory": 6569,
      "위키백과": 6570,
      "노르웨": 6571,
      "ge": 6572,
      "ma": 6573,
      "가가": 6574,
      "강력": 6575,
      "개막": 6576,
      "검찰": 6577,
      "곳에서": 6578,
      "공사": 6579,
      "다니": 6580,
      "데미": 6581,
      "독재": 6582,
      "라부아": 6583,
      "이집": 6584,
      "이지만": 6585,
      "인데": 6586,
      "학적": 6587,
      "혐의": 6588,
      "호환": 6589,
      "화학자": 6590,
      "수도권": 6591,
      "위치한": 6592,
      "li": 6593,
      "ob": 6594,
      "기하": 6595,
      "논쟁": 6596,
      "덴마크": 6597,
      "붕괴": 6598,
      "살아": 6599,
      "세워": 6600,
      "시마": 6601,
      "의하면": 6602,
      "측정": 6603,
      "폴링": 6604,
      "하에": 6605,
      "해외": 6606,
      "라이선": 6607,
      "일제강점": 6608,
      "어떻게": 6609,
      "BM": 6610,
      "Op": 6611,
      "oc": 6612,
      "거쳐": 6613,
      "기압": 6614,
      "달성": 6615,
      "모양": 6616,
      "물고": 6617,
      "전환": 6618,
      "찰스": 6619,
      "테이": 6620,
      "특수": 6621,
      "해의": 6622,
      "활용": 6623,
      "1913년": 6624,
      "리처드": 6625,
      "이집트": 6626,
      "%,": 6627,
      "군에": 6628,
      "도움": 6629,
      "로의": 6630,
      "리의": 6631,
      "메인": 6632,
      "쉽게": 6633,
      "연극": 6634,
      "운행": 6635,
      "의견": 6636,
      "이즈": 6637,
      "전에서": 6638,
      "정수": 6639,
      "항상": 6640,
      "허용": 6641,
      "고등학교": 6642,
      "겼다": 6643,
      "경험": 6644,
      "금지": 6645,
      "맥스": 6646,
      "발언": 6647,
      "보인다": 6648,
      "수출": 6649,
      "올라": 6650,
      "자민당": 6651,
      "최소": 6652,
      "키스탄": 6653,
      "하라": 6654,
      "되었으나": 6655,
      "1914년": 6656,
      "과정을": 6657,
      "프로그래밍": 6658,
      "Wor": 6659,
      "iver": 6660,
      "뉴스": 6661,
      "버스": 6662,
      "변호": 6663,
      "비트": 6664,
      "석을": 6665,
      "었으며": 6666,
      "요청": 6667,
      "준다": 6668,
      "터키": 6669,
      "통한": 6670,
      "ence": 6671,
      "사람이": 6672,
      "stein": 6673,
      "나타내는": 6674,
      "공산주의": 6675,
      "정책을": 6676,
      "크래프트": 6677,
      "cm": 6678,
      "가나": 6679,
      "경쟁": 6680,
      "공유": 6681,
      "독도": 6682,
      "보도": 6683,
      "보안": 6684,
      "생애": 6685,
      "소나타": 6686,
      "위상": 6687,
      "점차": 6688,
      "직후": 6689,
      "카르": 6690,
      "토니": 6691,
      "미국인": 6692,
      "1909년": 6693,
      "위해서": 6694,
      "1915년": 6695,
      "박정희의": 6696,
      "관련된": 6697,
      "프로세서": 6698,
      "하드웨어": 6699,
      "',": 6700,
      "65": 6701,
      "경기도": 6702,
      "광주": 6703,
      "당은": 6704,
      "등록": 6705,
      "멤버": 6706,
      "불어": 6707,
      "사퇴": 6708,
      "성분": 6709,
      "수용": 6710,
      "어나": 6711,
      "까지는": 6712,
      "비슷한": 6713,
      "'(": 6714,
      "ran": 6715,
      "갖는": 6716,
      "관을": 6717,
      "나온": 6718,
      "남아": 6719,
      "도착": 6720,
      "모형": 6721,
      "물론": 6722,
      "사령": 6723,
      "신성": 6724,
      "저장": 6725,
      "천황": 6726,
      "최종": 6727,
      "카와": 6728,
      "해를": 6729,
      "해상": 6730,
      "연구하는": 6731,
      "베를린": 6732,
      "2차": 6733,
      "Com": 6734,
      "Phy": 6735,
      "나누": 6736,
      "니콜": 6737,
      "도스": 6738,
      "마스": 6739,
      "식으로": 6740,
      "심리": 6741,
      "아마": 6742,
      "원으로": 6743,
      "150": 6744,
      "인터페이스": 6745,
      "데이비드": 6746,
      "FIFA": 6747,
      "45": 6748,
      "man": 6749,
      "가져": 6750,
      "강조": 6751,
      "소개": 6752,
      "수소": 6753,
      "스스로": 6754,
      "식물": 6755,
      "어와": 6756,
      "여전히": 6757,
      "인치": 6758,
      "적이고": 6759,
      "진이": 6760,
      "투스": 6761,
      "투쟁": 6762,
      "회전": 6763,
      "사용되는": 6764,
      "시작되었다": 6765,
      "1904년": 6766,
      "1911년": 6767,
      "받아들": 6768,
      "임의의": 6769,
      "그렇": 6770,
      "때는": 6771,
      "력과": 6772,
      "만나": 6773,
      "보존": 6774,
      "산맥": 6775,
      "시로": 6776,
      "여론": 6777,
      "완성": 6778,
      "유니": 6779,
      "자체": 6780,
      "주고": 6781,
      "주년": 6782,
      "파괴": 6783,
      "적으로는": 6784,
      "라이브": 6785,
      "지역에": 6786,
      "바탕으로": 6787,
      "ld": 6788,
      "개시": 6789,
      "끌어": 6790,
      "반복": 6791,
      "선포": 6792,
      "연설": 6793,
      "장군": 6794,
      "조의": 6795,
      "참석": 6796,
      "충분": 6797,
      "태우": 6798,
      "협력": 6799,
      "하기로": 6800,
      "세계대전": 6801,
      "야구선수": 6802,
      "문제가": 6803,
      "인구는": 6804,
      "아라파트": 6805,
      "스칼라": 6806,
      "SS": 6807,
      "데스": 6808,
      "박물": 6809,
      "아서": 6810,
      "위로": 6811,
      "전당": 6812,
      "전해": 6813,
      "지게": 6814,
      "태평양": 6815,
      "프가": 6816,
      "하였는데": 6817,
      "1990년대": 6818,
      "ont": 6819,
      "174": 6820,
      "ant": 6821,
      "지역의": 6822,
      "니아의": 6823,
      "구조를": 6824,
      "CP": 6825,
      "나중에": 6826,
      "미야": 6827,
      "비주": 6828,
      "신화": 6829,
      "않다": 6830,
      "외에": 6831,
      "음이": 6832,
      "이회": 6833,
      "인식": 6834,
      "치고": 6835,
      "친일": 6836,
      "파이": 6837,
      "헤르": 6838,
      "ers": 6839,
      "현재의": 6840,
      "스타크래프트": 6841,
      "IBM": 6842,
      "──": 6843,
      "금속": 6844,
      "도구": 6845,
      "리보": 6846,
      "미니": 6847,
      "선의": 6848,
      "수와": 6849,
      "전두": 6850,
      "제의": 6851,
      "천주교": 6852,
      "튜링": 6853,
      "평론": 6854,
      "협정": 6855,
      "부터는": 6856,
      "시작하였다": 6857,
      "경제학자": 6858,
      "만들었다": 6859,
      "마찬가지로": 6860,
      "av": 6861,
      "pr": 6862,
      "담당": 6863,
      "되자": 6864,
      "라틴": 6865,
      "르는": 6866,
      "바뀌": 6867,
      "발매": 6868,
      "사카": 6869,
      "세가": 6870,
      "자들은": 6871,
      "장과": 6872,
      "헨리": 6873,
      "힐베르트": 6874,
      "함수의": 6875,
      "출신의": 6876,
      "관심을": 6877,
      "바그너": 6878,
      "He": 6879,
      "che": 6880,
      "곱셈": 6881,
      "닉스": 6882,
      "룬다": 6883,
      "미래": 6884,
      "열차": 6885,
      "율은": 6886,
      "자본": 6887,
      "적이다": 6888,
      "정변": 6889,
      "제주": 6890,
      "중에서": 6891,
      "지질": 6892,
      "집중": 6893,
      "청년": 6894,
      "키는": 6895,
      "필요한": 6896,
      "해군": 6897,
      "인간의": 6898,
      "실제로": 6899,
      "김영삼": 6900,
      "고속도로": 6901,
      "이슬람": 6902,
      "Ein": 6903,
      "sch": 6904,
      "걸쳐": 6905,
      "관이": 6906,
      "나무": 6907,
      "데즈카": 6908,
      "도는": 6909,
      "등은": 6910,
      "마오": 6911,
      "명은": 6912,
      "바라": 6913,
      "비를": 6914,
      "승인": 6915,
      "아웃": 6916,
      "연맹": 6917,
      "오른": 6918,
      "인수": 6919,
      "정몽": 6920,
      "지식": 6921,
      "하겠": 6922,
      "하루": 6923,
      "홈페이지": 6924,
      "1906년": 6925,
      "고려대학교": 6926,
      "회원국": 6927,
      "전두환": 6928,
      "\"(": 6929,
      "10년": 6930,
      "co": 6931,
      "대기": 6932,
      "대칭": 6933,
      "동생": 6934,
      "무원": 6935,
      "베네": 6936,
      "의혹": 6937,
      "입학": 6938,
      "전개": 6939,
      "전후": 6940,
      "제곱": 6941,
      "춘천": 6942,
      "학습": 6943,
      "해도": 6944,
      "173": 6945,
      "arl": 6946,
      "사실을": 6947,
      "...": 6948,
      "각종": 6949,
      "결성": 6950,
      "대수": 6951,
      "머스": 6952,
      "아톰": 6953,
      "인과": 6954,
      "중반": 6955,
      "지대": 6956,
      "허가": 6957,
      "나타내": 6958,
      "베이징": 6959,
      "사고가": 6960,
      "파이어폭": 6961,
      "33": 6962,
      "FC": 6963,
      "eb": 6964,
      "그에": 6965,
      "그들은": 6966,
      "나와": 6967,
      "대성": 6968,
      "때까지": 6969,
      "생명": 6970,
      "선고": 6971,
      "세우": 6972,
      "소리": 6973,
      "시의": 6974,
      "쓰는": 6975,
      "얼마": 6976,
      "좋은": 6977,
      "코프": 6978,
      "텍스트": 6979,
      "트를": 6980,
      "학은": 6981,
      "1903년": 6982,
      "연구를": 6983,
      "출시되었다": 6984,
      "개통되었다": 6985,
      "플라톤": 6986,
      "맥스웰": 6987,
      "이회창": 6988,
      ")\"": 6989,
      "64": 6990,
      "PL": 6991,
      "pe": 6992,
      "금융": 6993,
      "라의": 6994,
      "어서": 6995,
      "원칙": 6996,
      "자극": 6997,
      "코치": 6998,
      "표면": 6999,
      "화성": 7000,
      "회로": 7001,
      "2000": 7002,
      "일본어": 7003,
      "미국은": 7004,
      "라이언": 7005,
      "되었는데": 7006,
      "결과를": 7007,
      "비주얼": 7008,
      "ok": 7009,
      "도서관": 7010,
      "동작": 7011,
      "디아": 7012,
      "명한": 7013,
      "산을": 7014,
      "시가": 7015,
      "아랍": 7016,
      "제이": 7017,
      "지니": 7018,
      "창설": 7019,
      "헤이": 7020,
      "그리스의": 7021,
      "공간의": 7022,
      "--": 7023,
      "37": 7024,
      "간주": 7025,
      "너무": 7026,
      "누리": 7027,
      "도르": 7028,
      "말을": 7029,
      "우드": 7030,
      "원수": 7031,
      "은행": 7032,
      "의무": 7033,
      "절대": 7034,
      "클래": 7035,
      "프린": 7036,
      "학을": 7037,
      "학회": 7038,
      "170": 7039,
      "159": 7040,
      "ary": 7041,
      "국가의": 7042,
      "방법을": 7043,
      "bert": 7044,
      "아카데미": 7045,
      "네트워크": 7046,
      "55": 7047,
      "la": 7048,
      "나머": 7049,
      "노래": 7050,
      "둘러": 7051,
      "루이스": 7052,
      "배구": 7053,
      "비치": 7054,
      "웨일": 7055,
      "이명": 7056,
      "인한": 7057,
      "종종": 7058,
      "주곡": 7059,
      "케냐": 7060,
      "태극": 7061,
      "토르": 7062,
      "파동": 7063,
      "홈런": 7064,
      "까지의": 7065,
      "과학적": 7066,
      "이용한": 7067,
      "작품을": 7068,
      "이승만": 7069,
      "프리드리히": 7070,
      "Ar": 7071,
      "IT": 7072,
      "ct": 7073,
      "건물": 7074,
      "공부": 7075,
      "근거": 7076,
      "먼저": 7077,
      "졌고": 7078,
      "지난": 7079,
      "지어": 7080,
      "체육": 7081,
      "탐험": 7082,
      "하천": 7083,
      "1895년": 7084,
      "이론을": 7085,
      "age": 7086,
      "form": 7087,
      "지하철": 7088,
      ")》": 7089,
      "98": 7090,
      "ae": 7091,
      "광복": 7092,
      "구속": 7093,
      "그들의": 7094,
      "리나": 7095,
      "마트": 7096,
      "상이": 7097,
      "수단": 7098,
      "시즌": 7099,
      "인트": 7100,
      "제목": 7101,
      "중력": 7102,
      "타고": 7103,
      "파울": 7104,
      "프로토": 7105,
      "미국과": 7106,
      "지역에서": 7107,
      "1896년": 7108,
      "프로그램을": 7109,
      "형태의": 7110,
      "개념을": 7111,
      "Einstein": 7112,
      "공작": 7113,
      "그린": 7114,
      "기여": 7115,
      "내에서": 7116,
      "논의": 7117,
      "더불어": 7118,
      "라디오": 7119,
      "목적으로": 7120,
      "무장": 7121,
      "보내": 7122,
      "서부": 7123,
      "시기에": 7124,
      "양성": 7125,
      "어류": 7126,
      "었던": 7127,
      "에이": 7128,
      "유키": 7129,
      "자원": 7130,
      "채널": 7131,
      "책을": 7132,
      "초월": 7133,
      "현실": 7134,
      "확대": 7135,
      "ind": 7136,
      "과학의": 7137,
      "노무현은": 7138,
      "김성수는": 7139,
      "96": 7140,
      "if": 7141,
      "값을": 7142,
      "네시아": 7143,
      "라디": 7144,
      "서쪽": 7145,
      "않아": 7146,
      "율을": 7147,
      "장애": 7148,
      "프라": 7149,
      "하다가": 7150,
      "ore": 7151,
      "현재는": 7152,
      "의미를": 7153,
      "하이젠베르크는": 7154,
      "필리핀": 7155,
      "팔레스타인": 7156,
      "TP": 7157,
      "교류": 7158,
      "그대로": 7159,
      "노스": 7160,
      "노예": 7161,
      "대화": 7162,
      "독자": 7163,
      "리더": 7164,
      "묘사": 7165,
      "방언": 7166,
      "북부": 7167,
      "슬라": 7168,
      "시를": 7169,
      "쓰인다": 7170,
      "연장": 7171,
      "와는": 7172,
      "원주": 7173,
      "유기": 7174,
      "주제": 7175,
      "진출": 7176,
      "타카": 7177,
      "파의": 7178,
      "해가": 7179,
      "확실": 7180,
      "확정": 7181,
      "1894년": 7182,
      "주장했다": 7183,
      "이루어진": 7184,
      "생물학자": 7185,
      "만들어진": 7186,
      "48": 7187,
      "6대": 7188,
      "렀다": 7189,
      "몇몇": 7190,
      "사슬": 7191,
      "소유": 7192,
      "여름": 7193,
      "용어": 7194,
      "이래": 7195,
      "주가": 7196,
      "진영": 7197,
      "사실상": 7198,
      "국무총리": 7199,
      "99": 7200,
      "IC": 7201,
      "간에": 7202,
      "귀족": 7203,
      "김민": 7204,
      "내부": 7205,
      "당한": 7206,
      "등에서": 7207,
      "레전": 7208,
      "목적": 7209,
      "무엇": 7210,
      "미르": 7211,
      "부문": 7212,
      "선전": 7213,
      "승격": 7214,
      "아티": 7215,
      "유진": 7216,
      "이던": 7217,
      "인들이": 7218,
      "젊은": 7219,
      "집행": 7220,
      "통치": 7221,
      "패배": 7222,
      "대한민국과": 7223,
      "ork": 7224,
      "1902년": 7225,
      "사람은": 7226,
      "중국공산당": 7227,
      "나타나": 7228,
      "베토벤의": 7229,
      "요일로": 7230,
      "공휴일": 7231,
      "//": 7232,
      "1인": 7233,
      "tp": 7234,
      "내에": 7235,
      "넓은": 7236,
      "뉴턴": 7237,
      "레드": 7238,
      "레슬": 7239,
      "멸망": 7240,
      "미군": 7241,
      "반발": 7242,
      "발발": 7243,
      "벌어": 7244,
      "북쪽": 7245,
      "비례": 7246,
      "사형": 7247,
      "세종": 7248,
      "수에": 7249,
      "수입": 7250,
      "신경": 7251,
      "안에서": 7252,
      "연립": 7253,
      "율이": 7254,
      "체포": 7255,
      "카이": 7256,
      "틀러": 7257,
      "한일": 7258,
      "행성": 7259,
      "나타낸다": 7260,
      "1897년": 7261,
      "시키고": 7262,
      "대상으로": 7263,
      "식민지": 7264,
      "유일한": 7265,
      "ivers": 7266,
      "1차": 7267,
      "=\"": 7268,
      "De": 7269,
      "ik": 7270,
      "ov": 7271,
      "our": 7272,
      "가치": 7273,
      "감을": 7274,
      "극작가": 7275,
      "길이": 7276,
      "나의": 7277,
      "도덕": 7278,
      "동아일": 7279,
      "리다": 7280,
      "버그": 7281,
      "부여": 7282,
      "사키": 7283,
      "에스페": 7284,
      "였고": 7285,
      "위가": 7286,
      "저서": 7287,
      "점으로": 7288,
      "책임": 7289,
      "추정": 7290,
      "하인": 7291,
      "헬름": 7292,
      "형의": 7293,
      "ang": 7294,
      "하나로": 7295,
      "시간을": 7296,
      "olog": 7297,
      "의미한다": 7298,
      "배포판": 7299,
      "300": 7300,
      "AS": 7301,
      "pp": 7302,
      "가의": 7303,
      "다카": 7304,
      "대규모": 7305,
      "루트": 7306,
      "말씀": 7307,
      "몽골": 7308,
      "부호": 7309,
      "불린다": 7310,
      "상업": 7311,
      "시오": 7312,
      "야스": 7313,
      "위성": 7314,
      "전역": 7315,
      "정규": 7316,
      "정착": 7317,
      "조정": 7318,
      "집권": 7319,
      "핵심": 7320,
      "화재": 7321,
      "힘을": 7322,
      "제외한": 7323,
      "스위스의": 7324,
      "가까운": 7325,
      "스코틀랜드": 7326,
      "레전드": 7327,
      "cl": 7328,
      "me": 7329,
      "개방": 7330,
      "디자인": 7331,
      "르고": 7332,
      "명에": 7333,
      "못했다": 7334,
      "바람": 7335,
      "보이는": 7336,
      "선정": 7337,
      "세의": 7338,
      "시는": 7339,
      "쓰이는": 7340,
      "있지": 7341,
      "잘못": 7342,
      "접속": 7343,
      "지리학": 7344,
      "천년": 7345,
      "2003": 7346,
      "발표했다": 7347,
      "이름으로": 7348,
      "있었던": 7349,
      "실험을": 7350,
      "열린우리": 7351,
      "\",": 7352,
      "NT": 7353,
      "Pa": 7354,
      "ww": 7355,
      "검색": 7356,
      "경성": 7357,
      "구현": 7358,
      "그려": 7359,
      "김일": 7360,
      "누스": 7361,
      "돌프": 7362,
      "리지": 7363,
      "상하이": 7364,
      "샤오": 7365,
      "수영": 7366,
      "순서": 7367,
      "스피": 7368,
      "원내": 7369,
      "웠다": 7370,
      "위에서": 7371,
      "의도": 7372,
      "이중": 7373,
      "제7": 7374,
      "종류의": 7375,
      "지닌": 7376,
      "출마": 7377,
      "토론": 7378,
      "독립을": 7379,
      "보다는": 7380,
      "상대성": 7381,
      "World": 7382,
      "전당대회": 7383,
      "에스페란": 7384,
      "Le": 7385,
      "MS": 7386,
      "net": 7387,
      "광고": 7388,
      "귀국": 7389,
      "만드는": 7390,
      "사법": 7391,
      "선에서": 7392,
      "소득": 7393,
      "소에": 7394,
      "아리": 7395,
      "전략": 7396,
      "추어": 7397,
      "폴리": 7398,
      "함을": 7399,
      "회복": 7400,
      "흡수": 7401,
      "int": 7402,
      "라이프": 7403,
      "공식적으로": 7404,
      "97": 7405,
      "Am": 7406,
      "lis": 7407,
      "경향": 7408,
      "곳에": 7409,
      "구의": 7410,
      "남쪽": 7411,
      "동쪽": 7412,
      "떡볶": 7413,
      "론적": 7414,
      "번호": 7415,
      "법에": 7416,
      "법이": 7417,
      "에디": 7418,
      "오는": 7419,
      "오페": 7420,
      "이것이": 7421,
      "인도의": 7422,
      "전라": 7423,
      "출간": 7424,
      "충청": 7425,
      "통해서": 7426,
      "하위": 7427,
      "하의": 7428,
      "레이싱": 7429,
      "전쟁을": 7430,
      "ate": 7431,
      "국민의": 7432,
      "3대": 7433,
      "sic": 7434,
      "공연": 7435,
      "노태우": 7436,
      "뮤니": 7437,
      "본격": 7438,
      "비난": 7439,
      "상에": 7440,
      "속에서": 7441,
      "식에": 7442,
      "아주": 7443,
      "유로": 7444,
      "음의": 7445,
      "적극": 7446,
      "전의": 7447,
      "제어": 7448,
      "조각": 7449,
      "차별": 7450,
      "청와": 7451,
      "커뮤니": 7452,
      "탐사": 7453,
      "태생": 7454,
      "해에": 7455,
      "대통령에": 7456,
      "사이에서": 7457,
      "사람들은": 7458,
      "1898년": 7459,
      "이름은": 7460,
      "박정희가": 7461,
      "로서의": 7462,
      "노동조합": 7463,
      "아일랜드의": 7464,
      "대해서는": 7465,
      "http": 7466,
      "아테네": 7467,
      "텔레비전": 7468,
      "크라테": 7469,
      "New": 7470,
      "88": 7471,
      "MB": 7472,
      "그것은": 7473,
      "데뷔": 7474,
      "뛰어": 7475,
      "리포": 7476,
      "매년": 7477,
      "면에서": 7478,
      "미사": 7479,
      "세기에": 7480,
      "신의": 7481,
      "심판": 7482,
      "아무": 7483,
      "안이": 7484,
      "외의": 7485,
      "웹사이트": 7486,
      "인종": 7487,
      "인하여": 7488,
      "저술": 7489,
      "전직": 7490,
      "제조": 7491,
      "진우": 7492,
      "프랙": 7493,
      "미국에서": 7494,
      "세계의": 7495,
      "야구인": 7496,
      "발생하다": 7497,
      "이루어져": 7498,
      "인도네시아": 7499,
      "연주자": 7500,
      "KBO": 7501,
      "스케이팅": 7502,
      "평론가": 7503,
      "이명박": 7504,
      "4대": 7505,
      "://": 7506,
      "UN": 7507,
      "US": 7508,
      "ment": 7509,
      "ud": 7510,
      "겨울": 7511,
      "구체": 7512,
      "글꼴": 7513,
      "네스": 7514,
      "드의": 7515,
      "러스": 7516,
      "로운": 7517,
      "루마": 7518,
      "무를": 7519,
      "바키": 7520,
      "배경": 7521,
      "보유": 7522,
      "보이": 7523,
      "보였다": 7524,
      "상승": 7525,
      "아동": 7526,
      "아시": 7527,
      "아우": 7528,
      "재정": 7529,
      "정해": 7530,
      "지와": 7531,
      "파키스탄": 7532,
      "프루": 7533,
      "2008": 7534,
      "위원장": 7535,
      "1899년": 7536,
      "0년대에": 7537,
      "최고위원": 7538,
      "하려는": 7539,
      "기존의": 7540,
      "CD": 7541,
      "CE": 7542,
      "Hz": 7543,
      "감소": 7544,
      "공포": 7545,
      "능력": 7546,
      "뜻하는": 7547,
      "부로": 7548,
      "불러": 7549,
      "비가": 7550,
      "위는": 7551,
      "일치": 7552,
      "자에": 7553,
      "쩌둥": 7554,
      "체로": 7555,
      "통하여": 7556,
      "파워": 7557,
      "현상을": 7558,
      "정부를": 7559,
      "인구가": 7560,
      "마오쩌둥": 7561,
      "동아일보": 7562,
      "DOS": 7563,
      "SBS": 7564,
      "ion": 7565,
      "기고": 7566,
      "당과": 7567,
      "대수학": 7568,
      "드레": 7569,
      "때에는": 7570,
      "리우스": 7571,
      "마사": 7572,
      "무선": 7573,
      "민간": 7574,
      "백만": 7575,
      "복소": 7576,
      "소크라테": 7577,
      "알아": 7578,
      "알고리": 7579,
      "역대": 7580,
      "온라인": 7581,
      "의존": 7582,
      "이른": 7583,
      "전철": 7584,
      "편입": 7585,
      "향상": 7586,
      "화산": 7587,
      "훈련": 7588,
      "대한제국": 7589,
      "되는데": 7590,
      "est": 7591,
      "위해서는": 7592,
      "사망했다": 7593,
      "전쟁이": 7594,
      "이름이": 7595,
      "일어난": 7596,
      "아인슈타인": 7597,
      "나오는": 7598,
      "ect": 7599,
      "클래식": 7600,
      "Con": 7601,
      "ff": 7602,
      "ry": 7603,
      "가로": 7604,
      "강제": 7605,
      "갖는다": 7606,
      "공급": 7607,
      "군은": 7608,
      "글로": 7609,
      "대는": 7610,
      "대립": 7611,
      "드를": 7612,
      "법원": 7613,
      "빌헬름": 7614,
      "산소": 7615,
      "소재": 7616,
      "안전": 7617,
      "어떠": 7618,
      "얻어": 7619,
      "오후": 7620,
      "오히": 7621,
      "용으로": 7622,
      "원시": 7623,
      "원인": 7624,
      "유튜": 7625,
      "진보": 7626,
      "창조": 7627,
      "치료": 7628,
      "특정한": 7629,
      "핀란드": 7630,
      "히틀러": 7631,
      "172": 7632,
      "구성되어": 7633,
      "제공한다": 7634,
      "마르크": 7635,
      "프랙탈": 7636,
      "57": 7637,
      "68": 7638,
      "IP": 7639,
      "ey": 7640,
      "결의": 7641,
      "권의": 7642,
      "그라": 7643,
      "김재": 7644,
      "단의": 7645,
      "데타": 7646,
      "량의": 7647,
      "모여": 7648,
      "밀리": 7649,
      "법조인": 7650,
      "보급": 7651,
      "산화": 7652,
      "서구": 7653,
      "수집": 7654,
      "연관": 7655,
      "와이": 7656,
      "우선": 7657,
      "유닉스": 7658,
      "이면": 7659,
      "이제": 7660,
      "중간": 7661,
      "초등": 7662,
      "크기": 7663,
      "클럽": 7664,
      "피아니": 7665,
      "필수": 7666,
      "하르트": 7667,
      "학년": 7668,
      "1892년": 7669,
      "ill": 7670,
      "기반으로": 7671,
      "Inter": 7672,
      "스티븐": 7673,
      "Proust": 7674,
      "에드워드": 7675,
      "오래된": 7676,
      "천문학자": 7677,
      "에스페란토": 7678,
      "알고리즘": 7679,
      "어떠한": 7680,
      "피아니스트": 7681,
      "2대": 7682,
      "RA": 7683,
      "ure": 7684,
      "경주": 7685,
      "고정": 7686,
      "교환": 7687,
      "군주": 7688,
      "그에게": 7689,
      "넘는": 7690,
      "다항": 7691,
      "단어": 7692,
      "먼트": 7693,
      "면을": 7694,
      "백남": 7695,
      "범죄": 7696,
      "서열": 7697,
      "수교": 7698,
      "수반": 7699,
      "안의": 7700,
      "오리": 7701,
      "유신": 7702,
      "이재": 7703,
      "자금": 7704,
      "장르": 7705,
      "전반": 7706,
      "정지": 7707,
      "제출": 7708,
      "차이": 7709,
      "편의": 7710,
      "훨씬": 7711,
      "주의를": 7712,
      "org": 7713,
      "이후에": 7714,
      "들어가": 7715,
      "지역은": 7716,
      "관계가": 7717,
      "내용을": 7718,
      "일으켰": 7719,
      "모습을": 7720,
      "나머지": 7721,
      "by": 7722,
      "계가": 7723,
      "달라": 7724,
      "동치": 7725,
      "디자이": 7726,
      "마련": 7727,
      "분열": 7728,
      "선은": 7729,
      "염기": 7730,
      "우에": 7731,
      "의해서": 7732,
      "이룬다": 7733,
      "장소": 7734,
      "전화": 7735,
      "정기": 7736,
      "조작": 7737,
      "증거": 7738,
      "쿠데타": 7739,
      "표를": 7740,
      "168": 7741,
      "과학기술": 7742,
      "회의에서": 7743,
      "하나이다": 7744,
      "발표하였다": 7745,
      "Sci": 7746,
      "pro": 7747,
      "uc": 7748,
      "국토": 7749,
      "깊은": 7750,
      "다운": 7751,
      "레옹": 7752,
      "머리": 7753,
      "불가": 7754,
      "사우": 7755,
      "상은": 7756,
      "설을": 7757,
      "썼다": 7758,
      "앨범": 7759,
      "인기를": 7760,
      "일정": 7761,
      "잭슨": 7762,
      "전공": 7763,
      "제프": 7764,
      "주파": 7765,
      "중학교": 7766,
      "지기": 7767,
      "창간": 7768,
      "훈장": 7769,
      "사용하고": 7770,
      "영국은": 7771,
      "방식으로": 7772,
      "복잡한": 7773,
      "프루스트": 7774,
      "디자이너": 7775,
      "%),": 7776,
      "31": 7777,
      "pl": 7778,
      "개편": 7779,
      "구별": 7780,
      "글을": 7781,
      "나폴": 7782,
      "남아프리카": 7783,
      "데스크": 7784,
      "드르": 7785,
      "드리": 7786,
      "물러": 7787,
      "법은": 7788,
      "베스": 7789,
      "본래": 7790,
      "비밀": 7791,
      "비히": 7792,
      "사후": 7793,
      "생겨": 7794,
      "스러": 7795,
      "스마트": 7796,
      "신교": 7797,
      "오카": 7798,
      "이온": 7799,
      "탈당": 7800,
      "사용한": 7801,
      "are": 7802,
      "나타낼": 7803,
      "시간이": 7804,
      "법칙을": 7805,
      "성질을": 7806,
      "디스플레이": 7807,
      "강력한": 7808,
      "46": 7809,
      "47": 7810,
      "56": 7811,
      "GPL": 7812,
      "ati": 7813,
      "oh": 7814,
      "가격": 7815,
      "김지": 7816,
      "내장": 7817,
      "량은": 7818,
      "미스": 7819,
      "브레": 7820,
      "설정": 7821,
      "세력": 7822,
      "슈퍼": 7823,
      "자리를": 7824,
      "점에": 7825,
      "제거": 7826,
      "조금": 7827,
      "지에는": 7828,
      "초에": 7829,
      "터리": 7830,
      "테르": 7831,
      "트랙": 7832,
      "팀이": 7833,
      "퍼드": 7834,
      "하므로": 7835,
      "확보": 7836,
      "ern": 7837,
      "하다고": 7838,
      "154": 7839,
      "이루는": 7840,
      "인구의": 7841,
      "기능이": 7842,
      "방정식의": 7843,
      "타이완": 7844,
      "상당한": 7845,
      "성립한다": 7846,
      "프로토콜": 7847,
      ")·": 7848,
      "NS": 7849,
      "per": 7850,
      "기억": 7851,
      "나뉜": 7852,
      "놓고": 7853,
      "동부": 7854,
      "두었다": 7855,
      "로도": 7856,
      "모노": 7857,
      "반란": 7858,
      "변형": 7859,
      "보장": 7860,
      "부상": 7861,
      "불법": 7862,
      "살고": 7863,
      "에만": 7864,
      "왕조": 7865,
      "원주민": 7866,
      "의료": 7867,
      "의학": 7868,
      "점은": 7869,
      "중성": 7870,
      "체에": 7871,
      "해체": 7872,
      "2007": 7873,
      "되었던": 7874,
      "그러한": 7875,
      "1890년": 7876,
      "유럽의": 7877,
      "기본적인": 7878,
      "계획을": 7879,
      "외교관": 7880,
      "폴란드의": 7881,
      "슬로바키": 7882,
      "다루는": 7883,
      "바이러스": 7884,
      "박물관": 7885,
      "오페라": 7886,
      "나폴레옹": 7887,
      "58": 7888,
      "DP": 7889,
      "게르": 7890,
      "계승": 7891,
      "구를": 7892,
      "구하는": 7893,
      "국이": 7894,
      "권이": 7895,
      "끝에": 7896,
      "남자": 7897,
      "단을": 7898,
      "동양": 7899,
      "롭게": 7900,
      "마라": 7901,
      "만은": 7902,
      "무시": 7903,
      "병원": 7904,
      "사항": 7905,
      "수리": 7906,
      "수사": 7907,
      "여객": 7908,
      "자들의": 7909,
      "점유": 7910,
      "조성": 7911,
      "주를": 7912,
      "주한": 7913,
      "지명": 7914,
      "테인": 7915,
      "협주곡": 7916,
      "라이트": 7917,
      "사람의": 7918,
      "사회적": 7919,
      "시대에": 7920,
      "방법으로": 7921,
      "있었고": 7922,
      "상당히": 7923,
      "파이어폭스": 7924,
      "0e": 7925,
      "OM": 7926,
      "ug": 7927,
      "고문": 7928,
      "공무원": 7929,
      "르게": 7930,
      "막스": 7931,
      "선에": 7932,
      "시와": 7933,
      "유의": 7934,
      "일리": 7935,
      "정은": 7936,
      "조치": 7937,
      "즉위": 7938,
      "코스": 7939,
      "트라": 7940,
      "하계": 7941,
      "합병": 7942,
      "호의": 7943,
      "화되어": 7944,
      "획득": 7945,
      "2004": 7946,
      "1970년대": 7947,
      "164": 7948,
      "사망하였다": 7949,
      "작품은": 7950,
      "1889년": 7951,
      "베트남의": 7952,
      "berg": 7953,
      "주어진": 7954,
      "노르웨이의": 7955,
      "덴마크의": 7956,
      "리보솜": 7957,
      "Pe": 7958,
      "br": 7959,
      "ze": 7960,
      "나서": 7961,
      "더라도": 7962,
      "덩샤오": 7963,
      "만한": 7964,
      "물에": 7965,
      "물체의": 7966,
      "미리": 7967,
      "반대로": 7968,
      "방출": 7969,
      "분의": 7970,
      "불과": 7971,
      "소녀": 7972,
      "수수": 7973,
      "심각": 7974,
      "약한": 7975,
      "이들의": 7976,
      "일정한": 7977,
      "재료": 7978,
      "주소": 7979,
      "컬러": 7980,
      "크리": 7981,
      "탄압": 7982,
      "패턴": 7983,
      "피에르": 7984,
      "확률": 7985,
      "된다는": 7986,
      "대한민국에서는": 7987,
      "tit": 7988,
      "지역을": 7989,
      "체제를": 7990,
      "현대의": 7991,
      "수학적": 7992,
      "차지하고": 7993,
      "이유는": 7994,
      "그래서": 7995,
      "Univers": 7996,
      "드라마": 7997,
      "말씀사": 7998,
      "덩샤오핑": 7999,
      "86": 8000,
      "FM": 8001,
      "Fre": 8002,
      "Mac": 8003,
      "Par": 8004,
      "iv": 8005,
      "yle": 8006,
      "가스": 8007,
      "가우스": 8008,
      "개신교": 8009,
      "계에": 8010,
      "군과": 8011,
      "김동": 8012,
      "뉴질": 8013,
      "모바": 8014,
      "무렵": 8015,
      "발음": 8016,
      "별로": 8017,
      "알고": 8018,
      "약을": 8019,
      "오디": 8020,
      "위안": 8021,
      "입력": 8022,
      "추모": 8023,
      "취급": 8024,
      "토머스": 8025,
      "통제": 8026,
      "흔히": 8027,
      "에서부터": 8028,
      "가지는": 8029,
      "사건으로": 8030,
      "서울말씀사": 8031,
      "사망하고": 8032,
      "149": 8033,
      "국민당": 8034,
      "1882년": 8035,
      "조선민주주의인민공화국은": 8036,
      "서비스를": 8037,
      "태어났다": 8038,
      "PDF": 8039,
      "벨기에의": 8040,
      "혐의로": 8041,
      "나뉜다": 8042,
      "0이": 8043,
      "값이": 8044,
      "개그": 8045,
      "교사": 8046,
      "국정": 8047,
      "나뉘": 8048,
      "당원": 8049,
      "드가": 8050,
      "무료": 8051,
      "배치": 8052,
      "산역": 8053,
      "생태": 8054,
      "성격": 8055,
      "송진우": 8056,
      "수치": 8057,
      "않을": 8058,
      "전파": 8059,
      "차가": 8060,
      "차이가": 8061,
      "창단": 8062,
      "트의": 8063,
      "확산": 8064,
      "까지도": 8065,
      "발생하였다": 8066,
      "ith": 8067,
      "아이돌": 8068,
      "리스토": 8069,
      "특별자치": 8070,
      "하려고": 8071,
      "방향으로": 8072,
      "정확한": 8073,
      "클린턴": 8074,
      "폴링은": 8075,
      "\".": 8076,
      "400": 8077,
      "가진다": 8078,
      "거절": 8079,
      "국어": 8080,
      "김태": 8081,
      "노력": 8082,
      "논리": 8083,
      "데에": 8084,
      "뜻을": 8085,
      "로를": 8086,
      "리게": 8087,
      "샤를": 8088,
      "어버": 8089,
      "연재": 8090,
      "오토": 8091,
      "웨이": 8092,
      "인촌": 8093,
      "중세": 8094,
      "초반": 8095,
      "추상": 8096,
      "치러": 8097,
      "캘리포": 8098,
      "코사인": 8099,
      "피터": 8100,
      "히데": 8101,
      "운동에": 8102,
      "정부에": 8103,
      "사망하다": 8104,
      "ice": 8105,
      "당시의": 8106,
      "대구광역시": 8107,
      "sion": 8108,
      "헝가리의": 8109,
      "지휘자": 8110,
      "라부아지에는": 8111,
      "캘리포니아": 8112,
      "30년": 8113,
      "National": 8114,
      "XP": 8115,
      "io": 8116,
      "ss": 8117,
      "논문을": 8118,
      "느냐": 8119,
      "다리": 8120,
      "달하는": 8121,
      "도메인": 8122,
      "량을": 8123,
      "량이": 8124,
      "러리": 8125,
      "마리아": 8126,
      "색을": 8127,
      "설이": 8128,
      "속에": 8129,
      "신을": 8130,
      "엔트로": 8131,
      "장악": 8132,
      "조용": 8133,
      "중의": 8134,
      "지다": 8135,
      "참조": 8136,
      "판결": 8137,
      "페이": 8138,
      "한다면": 8139,
      "프로듀": 8140,
      "운동의": 8141,
      "166": 8142,
      "개발을": 8143,
      "발표한": 8144,
      "발표되었다": 8145,
      "후보가": 8146,
      "없다고": 8147,
      "생물학": 8148,
      "다르다": 8149,
      "비교적": 8150,
      "커뮤니티": 8151,
      "엔트로피": 8152,
      "IE": 8153,
      "과반": 8154,
      "기온": 8155,
      "김용": 8156,
      "당했다": 8157,
      "돈을": 8158,
      "멀티": 8159,
      "못한": 8160,
      "미를": 8161,
      "받을": 8162,
      "변화를": 8163,
      "복소수": 8164,
      "본부": 8165,
      "상에서": 8166,
      "시티": 8167,
      "안토니": 8168,
      "앨런": 8169,
      "양식": 8170,
      "업을": 8171,
      "예측": 8172,
      "은하": 8173,
      "이듬": 8174,
      "이종": 8175,
      "인쇄": 8176,
      "전력": 8177,
      "천체": 8178,
      "출력": 8179,
      "파견": 8180,
      "판단": 8181,
      "프랭": 8182,
      "해산": 8183,
      "경우는": 8184,
      "155": 8185,
      "크로아티": 8186,
      "이용해": 8187,
      "아이디": 8188,
      "주장하였다": 8189,
      "구성된": 8190,
      "벡터의": 8191,
      "케이션": 8192,
      "이로써": 8193,
      "유사한": 8194,
      "39": 8195,
      "MC": 8196,
      "거대한": 8197,
      "건너": 8198,
      "고를": 8199,
      "구가": 8200,
      "기에는": 8201,
      "단지": 8202,
      "대장": 8203,
      "뒤에": 8204,
      "복제": 8205,
      "스탠": 8206,
      "스톤": 8207,
      "신은": 8208,
      "애국가": 8209,
      "예비": 8210,
      "유행": 8211,
      "이센": 8212,
      "이정": 8213,
      "저우": 8214,
      "전송": 8215,
      "지름": 8216,
      "축제": 8217,
      "캐스터": 8218,
      "타임": 8219,
      "통상": 8220,
      "피겨": 8221,
      "회가": 8222,
      "대통령으로": 8223,
      "세계적으로": 8224,
      "되어야": 8225,
      "167": 8226,
      "시작한다": 8227,
      "라고도": 8228,
      "전쟁의": 8229,
      "지원하는": 8230,
      "형태를": 8231,
      "도쿄도": 8232,
      "중화민국의": 8233,
      "어린이": 8234,
      "ISO": 8235,
      "발명가": 8236,
      "프로듀서": 8237,
      "59": 8238,
      "AP": 8239,
      "ex": 8240,
      "광역": 8241,
      "교도": 8242,
      "그해": 8243,
      "기울": 8244,
      "내의": 8245,
      "니스탄": 8246,
      "대서양": 8247,
      "동독": 8248,
      "들었다": 8249,
      "릭스": 8250,
      "말로": 8251,
      "사장": 8252,
      "산의": 8253,
      "상대로": 8254,
      "세대": 8255,
      "순수": 8256,
      "이한": 8257,
      "입법": 8258,
      "저기압": 8259,
      "죽은": 8260,
      "지며": 8261,
      "지사": 8262,
      "지시": 8263,
      "트는": 8264,
      "파가": 8265,
      "1980년대": 8266,
      "하다는": 8267,
      "된다고": 8268,
      "스트로": 8269,
      "미국에": 8270,
      "대한민국은": 8271,
      "프랑크": 8272,
      "기술을": 8273,
      "메이저": 8274,
      "코드를": 8275,
      "가가린": 8276,
      "모바일": 8277,
      "12년": 8278,
      "KT": 8279,
      "TO": 8280,
      "Th": 8281,
      "개가": 8282,
      "계에서": 8283,
      "공리": 8284,
      "그로": 8285,
      "김종": 8286,
      "단이": 8287,
      "동원": 8288,
      "려고": 8289,
      "론의": 8290,
      "면에": 8291,
      "못하고": 8292,
      "부활": 8293,
      "서독": 8294,
      "서명": 8295,
      "세운": 8296,
      "수여": 8297,
      "시청": 8298,
      "심을": 8299,
      "아리스토": 8300,
      "안은": 8301,
      "옮겨": 8302,
      "유용": 8303,
      "이성": 8304,
      "임기": 8305,
      "자격": 8306,
      "전신": 8307,
      "졌으며": 8308,
      "천연": 8309,
      "체조": 8310,
      "티아": 8311,
      "협상": 8312,
      "화되었다": 8313,
      "활발": 8314,
      "프로이센": 8315,
      "시작하는": 8316,
      "style": 8317,
      "언어를": 8318,
      "존재하지": 8319,
      "방법은": 8320,
      "소프트웨어를": 8321,
      "시스템을": 8322,
      "이전의": 8323,
      "문서를": 8324,
      "생활을": 8325,
      "Eng": 8326,
      "탐험가": 8327,
      "건조": 8328,
      "검은": 8329,
      "그것": 8330,
      "극장": 8331,
      "메르": 8332,
      "받지": 8333,
      "블로": 8334,
      "사임": 8335,
      "서기": 8336,
      "세에": 8337,
      "여서": 8338,
      "연소": 8339,
      "오로": 8340,
      "인가": 8341,
      "인들은": 8342,
      "일상": 8343,
      "조사를": 8344,
      "좋아": 8345,
      "지면서": 8346,
      "진압": 8347,
      "철수": 8348,
      "침공": 8349,
      "캠퍼": 8350,
      "트가": 8351,
      "하늘": 8352,
      "학살": 8353,
      "1000": 8354,
      "사용되었다": 8355,
      "이라며": 8356,
      "시작한": 8357,
      "개발한": 8358,
      "집합은": 8359,
      "있었으나": 8360,
      "행렬의": 8361,
      "노벨상": 8362,
      "구간이": 8363,
      "작업을": 8364,
      "PDA": 8365,
      "홍콩의": 8366,
      "오히려": 8367,
      "3번째": 8368,
      "ly": 8369,
      "공통": 8370,
      "교토": 8371,
      "넘어": 8372,
      "노프": 8373,
      "다케": 8374,
      "듯이": 8375,
      "르네": 8376,
      "리만": 8377,
      "말은": 8378,
      "명명": 8379,
      "블라디": 8380,
      "빠른": 8381,
      "살인": 8382,
      "상륙": 8383,
      "소는": 8384,
      "소의": 8385,
      "수아": 8386,
      "스럽": 8387,
      "영상": 8388,
      "울산": 8389,
      "지지를": 8390,
      "집필": 8391,
      "청소년": 8392,
      "특성": 8393,
      "파병": 8394,
      "한강": 8395,
      "합쳐": 8396,
      "했기": 8397,
      "화와": 8398,
      "일본인": 8399,
      "eric": 8400,
      "독일어": 8401,
      "165": 8402,
      "사건을": 8403,
      "하나는": 8404,
      "130": 8405,
      "포함한다": 8406,
      "공간을": 8407,
      "1887년": 8408,
      "ass": 8409,
      "연방의": 8410,
      "우리가": 8411,
      "km2": 8412,
      "크리스토": 8413,
      "스위스": 8414,
      "변호사": 8415,
      "루트비히": 8416,
      "백남준": 8417,
      "사우디": 8418,
      "2번째": 8419,
      "66": 8420,
      "Ro": 8421,
      "SA": 8422,
      "가속": 8423,
      "개장": 8424,
      "건강": 8425,
      "공공": 8426,
      "권력": 8427,
      "근처": 8428,
      "기저": 8429,
      "끄는": 8430,
      "떠나": 8431,
      "보냈다": 8432,
      "비극": 8433,
      "사각": 8434,
      "순교": 8435,
      "스튜": 8436,
      "시킬": 8437,
      "신앙": 8438,
      "용어는": 8439,
      "원과": 8440,
      "인근": 8441,
      "인용": 8442,
      "있음을": 8443,
      "증언": 8444,
      "총련": 8445,
      "추측": 8446,
      "타르": 8447,
      "호는": 8448,
      "일본에서": 8449,
      "사용자가": 8450,
      "하지는": 8451,
      "이라고도": 8452,
      "대학교에서": 8453,
      "발전을": 8454,
      "이루어졌다": 8455,
      "방정식을": 8456,
      "이전에": 8457,
      "브리튼": 8458,
      "ows": 8459,
      "시킨다": 8460,
      "체코의": 8461,
      "동일한": 8462,
      "Comp": 8463,
      "이른바": 8464,
      "49": 8465,
      "77": 8466,
      "</": 8467,
      "Har": 8468,
      "가상": 8469,
      "개항": 8470,
      "경계": 8471,
      "국기": 8472,
      "그와": 8473,
      "나이로": 8474,
      "니즘": 8475,
      "다수의": 8476,
      "라며": 8477,
      "리코": 8478,
      "마케": 8479,
      "모순": 8480,
      "목사": 8481,
      "부모": 8482,
      "블랙": 8483,
      "새천년": 8484,
      "수비": 8485,
      "십자": 8486,
      "안보": 8487,
      "어렵": 8488,
      "언제": 8489,
      "였으며": 8490,
      "왕국의": 8491,
      "음성": 8492,
      "일의": 8493,
      "조절": 8494,
      "중의원": 8495,
      "청나라": 8496,
      "화합": 8497,
      "하고자": 8498,
      "되었다고": 8499,
      "enberg": 8500,
      "157": 8501,
      "사회의": 8502,
      "대학교의": 8503,
      "발생했다": 8504,
      "자신을": 8505,
      "컴퓨터를": 8506,
      "ath": 8507,
      "rom": 8508,
      "존재하는": 8509,
      "노무현의": 8510,
      "방정식은": 8511,
      "이었고": 8512,
      "헌법재판": 8513,
      "상대적으로": 8514,
      "전투에서": 8515,
      "플라스": 8516,
      "정상회담": 8517,
      "대사관": 8518,
      "상호작용": 8519,
      "단순한": 8520,
      "그녀는": 8521,
      "강원도": 8522,
      "엘리자": 8523,
      "ology": 8524,
      "데스크톱": 8525,
      "새천년민주당": 8526,
      "5개": 8527,
      "Col": 8528,
      "My": 8529,
      "MHz": 8530,
      "거듭": 8531,
      "것처럼": 8532,
      "경의": 8533,
      "관하여": 8534,
      "극한": 8535,
      "급격": 8536,
      "기소": 8537,
      "기까지": 8538,
      "나들": 8539,
      "놀이": 8540,
      "드시": 8541,
      "라트": 8542,
      "르크": 8543,
      "마음": 8544,
      "메달": 8545,
      "모스크": 8546,
      "문명": 8547,
      "배를": 8548,
      "성향": 8549,
      "수필": 8550,
      "신이": 8551,
      "아트": 8552,
      "알게": 8553,
      "여왕": 8554,
      "예프": 8555,
      "올린": 8556,
      "외선": 8557,
      "이것을": 8558,
      "자크": 8559,
      "전혀": 8560,
      "주목": 8561,
      "즈의": 8562,
      "총장": 8563,
      "출발": 8564,
      "카메": 8565,
      "카프": 8566,
      "포기": 8567,
      "필드": 8568,
      "후의": 8569,
      "후쿠": 8570,
      "사용되고": 8571,
      "152": 8572,
      "발생하는": 8573,
      "역사가": 8574,
      "대학의": 8575,
      "이상이": 8576,
      "1863년": 8577,
      "유명하다": 8578,
      "제외하고": 8579,
      "임시정부": 8580,
      "Albert": 8581,
      "간단한": 8582,
      "Press": 8583,
      "물고기": 8584,
      "사령관": 8585,
      "%)": 8586,
      "5대": 8587,
      ";\"": 8588,
      "IA": 8589,
      "SK": 8590,
      "bo": 8591,
      "con": 8592,
      "ric": 8593,
      "고르": 8594,
      "과도": 8595,
      "국을": 8596,
      "늘어": 8597,
      "니스트": 8598,
      "당에": 8599,
      "데르": 8600,
      "따로": 8601,
      "말에": 8602,
      "모로": 8603,
      "배열": 8604,
      "부와": 8605,
      "분할": 8606,
      "블리": 8607,
      "생화학": 8608,
      "서식": 8609,
      "센트": 8610,
      "순간": 8611,
      "습니다": 8612,
      "실질": 8613,
      "았던": 8614,
      "은퇴": 8615,
      "전압": 8616,
      "조를": 8617,
      "중인": 8618,
      "패션": 8619,
      "프로야구": 8620,
      "end": 8621,
      "이후의": 8622,
      "169": 8623,
      "156": 8624,
      "포함되어": 8625,
      "문제로": 8626,
      "후보로": 8627,
      "없다는": 8628,
      "만들고": 8629,
      "으로서의": 8630,
      "HTTP": 8631,
      "멕시코의": 8632,
      "42": 8633,
      "75": 8634,
      "Sch": 8635,
      "Wind": 8636,
      "ip": 8637,
      "ue": 8638,
      "가서": 8639,
      "고종": 8640,
      "구로": 8641,
      "그것을": 8642,
      "김상": 8643,
      "널드": 8644,
      "다수": 8645,
      "대개": 8646,
      "동기": 8647,
      "드와": 8648,
      "들이다": 8649,
      "받는다": 8650,
      "방식을": 8651,
      "본토": 8652,
      "산이": 8653,
      "얻는다": 8654,
      "연대": 8655,
      "예정": 8656,
      "오전": 8657,
      "이현": 8658,
      "장비": 8659,
      "적절": 8660,
      "전용": 8661,
      "정주": 8662,
      "창시": 8663,
      "체와": 8664,
      "쿼크": 8665,
      "타로": 8666,
      "형제": 8667,
      "호프": 8668,
      "후지": 8669,
      "스트라": 8670,
      "미국이": 8671,
      "운동이": 8672,
      "ism": 8673,
      "함수를": 8674,
      "1888년": 8675,
      "공식적인": 8676,
      "ace": 8677,
      "분야에서": 8678,
      "최고의": 8679,
      "개인용": 8680,
      "각각의": 8681,
      "이스라엘의": 8682,
      "우크라이나의": 8683,
      "게이츠는": 8684,
      "이듬해": 8685,
      "AA": 8686,
      "Pl": 8687,
      "ide": 8688,
      "국은": 8689,
      "기인": 8690,
      "너스": 8691,
      "높아": 8692,
      "대략": 8693,
      "대역": 8694,
      "대형": 8695,
      "들로부터": 8696,
      "미나": 8697,
      "미적분": 8698,
      "번의": 8699,
      "본질": 8700,
      "분쟁": 8701,
      "사마": 8702,
      "상어": 8703,
      "쓰고": 8704,
      "아름": 8705,
      "이은": 8706,
      "일은": 8707,
      "제헌": 8708,
      "죽음": 8709,
      "지상": 8710,
      "지수": 8711,
      "혼란": 8712,
      "이후로": 8713,
      "158": 8714,
      "부분을": 8715,
      "컴퓨터의": 8716,
      "도시철도": 8717,
      "총리가": 8718,
      "BSD": 8719,
      "지구의": 8720,
      "21세기": 8721,
      "기하학": 8722,
      "정몽준": 8723,
      "레슬링": 8724,
      "청와대": 8725,
      "스마트폰": 8726,
      "9대": 8727,
      "ial": 8728,
      "ire": 8729,
      "|-": 8730,
      "고안": 8731,
      "고용": 8732,
      "관성": 8733,
      "그렇게": 8734,
      "나왔다": 8735,
      "누구": 8736,
      "다면": 8737,
      "동성": 8738,
      "등급": 8739,
      "뜻한다": 8740,
      "마치": 8741,
      "무게": 8742,
      "새마을": 8743,
      "서술": 8744,
      "성능": 8745,
      "셔널": 8746,
      "알파": 8747,
      "었으나": 8748,
      "엔터": 8749,
      "오사카": 8750,
      "우라": 8751,
      "운드": 8752,
      "으면서": 8753,
      "이끌": 8754,
      "이수": 8755,
      "이시": 8756,
      "이끄는": 8757,
      "인텔": 8758,
      "정도의": 8759,
      "종목": 8760,
      "직할": 8761,
      "추기": 8762,
      "코돈": 8763,
      "타운": 8764,
      "플랫": 8765,
      "하일": 8766,
      "함석": 8767,
      "흐름": 8768,
      "에게는": 8769,
      "학교를": 8770,
      "들어서": 8771,
      "되었지만": 8772,
      "문제는": 8773,
      "1881년": 8774,
      "일어나다": 8775,
      "1862년": 8776,
      "사실이": 8777,
      "예술가": 8778,
      "표기법": 8779,
      "일으키": 8780,
      "istory": 8781,
      "블루투스": 8782,
      "2개의": 8783,
      "Co": 8784,
      "ast": 8785,
      "col": 8786,
      "ian": 8787,
      "pt": 8788,
      "sh": 8789,
      "개헌": 8790,
      "고향": 8791,
      "관료": 8792,
      "김도": 8793,
      "낭만": 8794,
      "농민": 8795,
      "대문": 8796,
      "동구": 8797,
      "동화": 8798,
      "랐다": 8799,
      "모임": 8800,
      "민정": 8801,
      "반영": 8802,
      "발족": 8803,
      "부통령": 8804,
      "분명": 8805,
      "빠르게": 8806,
      "사에서": 8807,
      "상임": 8808,
      "생존": 8809,
      "서의": 8810,
      "소추": 8811,
      "수직": 8812,
      "순환": 8813,
      "알라": 8814,
      "앙카라": 8815,
      "약속": 8816,
      "여기에": 8817,
      "요코": 8818,
      "음식": 8819,
      "이뤄": 8820,
      "이외에도": 8821,
      "작전": 8822,
      "재임": 8823,
      "점점": 8824,
      "주니": 8825,
      "주식": 8826,
      "지진이": 8827,
      "직교": 8828,
      "징역": 8829,
      "천역": 8830,
      "추대": 8831,
      "카뮈": 8832,
      "콘스탄": 8833,
      "테니스": 8834,
      "행위": 8835,
      "으로도": 8836,
      "시작하여": 8837,
      "포함하는": 8838,
      "선거를": 8839,
      "공간이다": 8840,
      "브라운": 8841,
      "1876년": 8842,
      "있었으며": 8843,
      "에너지를": 8844,
      "ign": 8845,
      "단백질의": 8846,
      "북한의": 8847,
      "우승을": 8848,
      "논란이": 8849,
      "목표로": 8850,
      "그런데": 8851,
      "일제강점기": 8852,
      "오른쪽": 8853,
      "유튜버": 8854,
      "블라디미르": 8855,
      "Windows": 8856,
      "(?": 8857,
      "0으로": 8858,
      "1대": 8859,
      "2개": 8860,
      "67": 8861,
      "AN": 8862,
      "가타": 8863,
      "값은": 8864,
      "계는": 8865,
      "계층": 8866,
      "계기로": 8867,
      "고도": 8868,
      "구리": 8869,
      "김준": 8870,
      "끝나": 8871,
      "다중": 8872,
      "단행": 8873,
      "대공": 8874,
      "디스크": 8875,
      "론이": 8876,
      "망명": 8877,
      "모아": 8878,
      "모음": 8879,
      "밀러": 8880,
      "베리": 8881,
      "보았다": 8882,
      "분을": 8883,
      "삼색": 8884,
      "신뢰": 8885,
      "신학": 8886,
      "오랜": 8887,
      "우리는": 8888,
      "위반": 8889,
      "위험": 8890,
      "재건": 8891,
      "저지": 8892,
      "종결": 8893,
      "종로": 8894,
      "주와": 8895,
      "진주": 8896,
      "짧은": 8897,
      "채용": 8898,
      "탈피": 8899,
      "호소": 8900,
      "홍보": 8901,
      "훗날": 8902,
      "흑인": 8903,
      "희생": 8904,
      "1960년대": 8905,
      "한국인": 8906,
      "ort": 8907,
      "되었을": 8908,
      "사건의": 8909,
      "나타난다": 8910,
      "문제에": 8911,
      "시대를": 8912,
      "이론의": 8913,
      "가능성이": 8914,
      "공산당의": 8915,
      "1861년": 8916,
      "1864년": 8917,
      "이란의": 8918,
      "idae": 8919,
      "포르투갈의": 8920,
      "받아들여": 8921,
      "웨일스": 8922,
      "lish": 8923,
      "15년": 8924,
      "1번째": 8925,
      "SI": 8926,
      "lic": 8927,
      "mac": 8928,
      "national": 8929,
      "ram": 8930,
      "가를": 8931,
      "각운동량": 8932,
      "겠다": 8933,
      "고급": 8934,
      "공군": 8935,
      "국에": 8936,
      "근본": 8937,
      "납치": 8938,
      "대교": 8939,
      "디킨": 8940,
      "모어": 8941,
      "바티": 8942,
      "서적": 8943,
      "슬러": 8944,
      "알리": 8945,
      "염색": 8946,
      "왼쪽": 8947,
      "우스의": 8948,
      "원리": 8949,
      "음에도": 8950,
      "입장을": 8951,
      "정복": 8952,
      "중에는": 8953,
      "진동": 8954,
      "출연": 8955,
      "칼리": 8956,
      "통산": 8957,
      "하우스": 8958,
      "활성": 8959,
      "2010": 8960,
      "대한민국이": 8961,
      "대통령과": 8962,
      "ann": 8963,
      "에게서": 8964,
      "연구에": 8965,
      "문화의": 8966,
      "발생한": 8967,
      "프로그램이": 8968,
      "노동자": 8969,
      "원자력": 8970,
      "프레드": 8971,
      "공격을": 8972,
      "태어난": 8973,
      "외국인": 8974,
      "경상북도": 8975,
      "Physic": 8976,
      "나누어": 8977,
      "University": 8978,
      ")(": 8979,
      "600": 8980,
      "FT": 8981,
      "oci": 8982,
      "sp": 8983,
      "up": 8984,
      "고고": 8985,
      "골프": 8986,
      "구치": 8987,
      "김구": 8988,
      "김진": 8989,
      "당으로": 8990,
      "동료": 8991,
      "되지만": 8992,
      "바타": 8993,
      "받게": 8994,
      "복지": 8995,
      "볼츠": 8996,
      "분해": 8997,
      "사례": 8998,
      "새누리": 8999,
      "선생": 9000,
      "수호": 9001,
      "아프가": 9002,
      "안티": 9003,
      "양을": 9004,
      "업체": 9005,
      "었는데": 9006,
      "에어": 9007,
      "여신": 9008,
      "오프": 9009,
      "우수": 9010,
      "유닛": 9011,
      "의장": 9012,
      "제우스": 9013,
      "족의": 9014,
      "코딩": 9015,
      "콜롬": 9016,
      "투자": 9017,
      "트럼": 9018,
      "파로": 9019,
      "편이다": 9020,
      "풍부": 9021,
      "하마": 9022,
      "하야": 9023,
      "함에": 9024,
      "헤라": 9025,
      "회고": 9026,
      "민주화": 9027,
      "163": 9028,
      "arch": 9029,
      "연구가": 9030,
      "포함된다": 9031,
      "1893년": 9032,
      "언어로": 9033,
      "isenberg": 9034,
      "특별한": 9035,
      "마이크로소프트에서": 9036,
      "비판을": 9037,
      "아미노산은": 9038,
      "오픈오피스": 9039,
      "데이터베이스": 9040,
      "않았고": 9041,
      "슬로베": 9042,
      "플랑크는": 9043,
      "라이선스": 9044,
      "Heisenberg": 9045,
      "아프가니스탄": 9046,
      "120": 9047,
      "AC": 9048,
      "Ph": 9049,
      "be": 9050,
      "go": 9051,
      "gro": 9052,
      "ile": 9053,
      "ou": 9054,
      "rit": 9055,
      "work": 9056,
      "yst": 9057,
      "감정": 9058,
      "고유": 9059,
      "구면": 9060,
      "긴급": 9061,
      "니체는": 9062,
      "다섯": 9063,
      "대행": 9064,
      "덧셈": 9065,
      "들면": 9066,
      "마산": 9067,
      "말이": 9068,
      "물과": 9069,
      "물로": 9070,
      "반드시": 9071,
      "법정": 9072,
      "붙여": 9073,
      "알제": 9074,
      "어휘": 9075,
      "없고": 9076,
      "유산": 9077,
      "유클리": 9078,
      "의식": 9079,
      "이념": 9080,
      "이인": 9081,
      "입자의": 9082,
      "조리": 9083,
      "존슨": 9084,
      "직원": 9085,
      "찬성": 9086,
      "총통": 9087,
      "칠레": 9088,
      "카의": 9089,
      "토마스": 9090,
      "폭력": 9091,
      "확립": 9092,
      "18세기": 9093,
      "2006": 9094,
      "2000년대": 9095,
      "다음의": 9096,
      "ord": 9097,
      "ical": 9098,
      "언어학": 9099,
      "메이지": 9100,
      "1885년": 9101,
      "일어나는": 9102,
      "캐나다는": 9103,
      "1875년": 9104,
      "위치를": 9105,
      "성공회": 9106,
      "기반을": 9107,
      "가리키는": 9108,
      "대상이": 9109,
      "ight": 9110,
      "전하를": 9111,
      "DNA의": 9112,
      "쿠바의": 9113,
      "피해를": 9114,
      "건축가": 9115,
      "하인리히": 9116,
      "\")": 9117,
      "GDP": 9118,
      "IM": 9119,
      "ron": 9120,
      "강수": 9121,
      "기지": 9122,
      "나우": 9123,
      "놓은": 9124,
      "느끼": 9125,
      "대조": 9126,
      "대항": 9127,
      "독특": 9128,
      "동굴": 9129,
      "동아시아": 9130,
      "두산": 9131,
      "둘째": 9132,
      "로이": 9133,
      "메시": 9134,
      "뮌헨": 9135,
      "부근": 9136,
      "블로그": 9137,
      "비용": 9138,
      "빌리": 9139,
      "사에": 9140,
      "사유": 9141,
      "쇼트": 9142,
      "시위": 9143,
      "신학자": 9144,
      "악장": 9145,
      "안드로": 9146,
      "언스": 9147,
      "엔진": 9148,
      "역을": 9149,
      "열대성": 9150,
      "왕립": 9151,
      "인으로": 9152,
      "재즈": 9153,
      "전사": 9154,
      "전시": 9155,
      "제8": 9156,
      "주택": 9157,
      "주에서": 9158,
      "준공": 9159,
      "중부": 9160,
      "지진": 9161,
      "착륙": 9162,
      "치어": 9163,
      "키르": 9164,
      "터치": 9165,
      "해졌다": 9166,
      "화로": 9167,
      "효율": 9168,
      "주의의": 9169,
      "포함하여": 9170,
      "정의할": 9171,
      "ata": 9172,
      "이루고": 9173,
      "시간에": 9174,
      "프랑스어": 9175,
      "해당하는": 9176,
      "있어야": 9177,
      "성공을": 9178,
      "지방자치": 9179,
      "에너지는": 9180,
      "제공하는": 9181,
      "스크린": 9182,
      "1859년": 9183,
      "베토벤이": 9184,
      "사업가": 9185,
      "사업을": 9186,
      "완전한": 9187,
      "물질의": 9188,
      "현상이": 9189,
      "오스만": 9190,
      "Open": 9191,
      "니콜라": 9192,
      "Americ": 9193,
      "아시안": 9194,
      "나들목": 9195,
      "모스크바": 9196,
      ")’": 9197,
      "78": 9198,
      "Mo": 9199,
      "On": 9200,
      "가에": 9201,
      "강연": 9202,
      "개척": 9203,
      "건의": 9204,
      "검토": 9205,
      "권은": 9206,
      "근무": 9207,
      "김현": 9208,
      "때의": 9209,
      "론에": 9210,
      "리크": 9211,
      "말레이": 9212,
      "명확": 9213,
      "모니": 9214,
      "문법": 9215,
      "미스코": 9216,
      "방위": 9217,
      "보낸": 9218,
      "비오": 9219,
      "삼국": 9220,
      "설득": 9221,
      "세로": 9222,
      "알바": 9223,
      "였으나": 9224,
      "의심": 9225,
      "이하": 9226,
      "정원": 9227,
      "정권을": 9228,
      "제도를": 9229,
      "줄어": 9230,
      "지자": 9231,
      "총회": 9232,
      "파르": 9233,
      "편이": 9234,
      "평면": 9235,
      "하시": 9236,
      "항의": 9237,
      "대한제국의": 9238,
      "경우에": 9239,
      "153": 9240,
      "국가로": 9241,
      "중국어": 9242,
      "145": 9243,
      "영국과": 9244,
      "1891년": 9245,
      "컴퓨팅": 9246,
      "함수는": 9247,
      "교육을": 9248,
      "대부분은": 9249,
      "1865년": 9250,
      "ations": 9251,
      "반대하는": 9252,
      "선출되었다": 9253,
      "떨어져": 9254,
      "전통적인": 9255,
      "사우디아라": 9256,
      "함석헌": 9257,
      "11년": 9258,
      "43": 9259,
      "4번째": 9260,
      "Joh": 9261,
      "R2": 9262,
      "RT": 9263,
      "가설": 9264,
      "가포르": 9265,
      "개설": 9266,
      "거래": 9267,
      "게오르": 9268,
      "경기를": 9269,
      "계통": 9270,
      "관여": 9271,
      "구축": 9272,
      "국공": 9273,
      "기름": 9274,
      "나선": 9275,
      "노조": 9276,
      "단과": 9277,
      "단에": 9278,
      "론은": 9279,
      "리케이션": 9280,
      "밀도": 9281,
      "밀한": 9282,
      "부처": 9283,
      "빛의": 9284,
      "산은": 9285,
      "서에": 9286,
      "실시간": 9287,
      "싱가포르": 9288,
      "아사": 9289,
      "얻은": 9290,
      "에릭": 9291,
      "오가": 9292,
      "오사무": 9293,
      "요르": 9294,
      "이영": 9295,
      "인기": 9296,
      "일시": 9297,
      "잡지": 9298,
      "장례": 9299,
      "주간": 9300,
      "중립": 9301,
      "지위를": 9302,
      "초기의": 9303,
      "토요일": 9304,
      "패러": 9305,
      "펜싱": 9306,
      "펩타이": 9307,
      "포스트": 9308,
      "플래": 9309,
      "학술": 9310,
      "합법": 9311,
      "형이": 9312,
      "화에": 9313,
      "히라": 9314,
      "하여야": 9315,
      "erman": 9316,
      "ond": 9317,
      "학교에": 9318,
      "이후에는": 9319,
      "국가를": 9320,
      "가지의": 9321,
      "ese": 9322,
      "문화재": 9323,
      "경제적": 9324,
      "음악은": 9325,
      "관계는": 9326,
      "000명": 9327,
      "1872년": 9328,
      "1879년": 9329,
      "분야의": 9330,
      "법칙은": 9331,
      "조건을": 9332,
      "필요로": 9333,
      "지금의": 9334,
      "권한을": 9335,
      "도움을": 9336,
      "충분히": 9337,
      "ystem": 9338,
      "독특한": 9339,
      "미스코리아": 9340,
      ".'": 9341,
      "1만": 9342,
      "6세": 9343,
      "Ac": 9344,
      "Ser": 9345,
      "가졌다": 9346,
      "강남": 9347,
      "갖추": 9348,
      "게다가": 9349,
      "경을": 9350,
      "공장": 9351,
      "광범": 9352,
      "구에": 9353,
      "그것이": 9354,
      "김병": 9355,
      "날이": 9356,
      "높이": 9357,
      "니체": 9358,
      "러는": 9359,
      "려는": 9360,
      "매체": 9361,
      "모르": 9362,
      "모를": 9363,
      "미의": 9364,
      "방영": 9365,
      "벨라": 9366,
      "부시": 9367,
      "분기": 9368,
      "분에": 9369,
      "분위": 9370,
      "세우스": 9371,
      "식량": 9372,
      "심장": 9373,
      "않으며": 9374,
      "았고": 9375,
      "열을": 9376,
      "예상": 9377,
      "완료": 9378,
      "움을": 9379,
      "원에서": 9380,
      "유치": 9381,
      "유학": 9382,
      "인명": 9383,
      "잃어버": 9384,
      "임금": 9385,
      "자녀": 9386,
      "자서": 9387,
      "장교": 9388,
      "제6": 9389,
      "지미": 9390,
      "직선": 9391,
      "체르": 9392,
      "카터": 9393,
      "탑승": 9394,
      "티스": 9395,
      "함경": 9396,
      "후기": 9397,
      "2005": 9398,
      "17대": 9399,
      "16대": 9400,
      "중국은": 9401,
      "나타났다": 9402,
      "공간은": 9403,
      "1884년": 9404,
      "방법이": 9405,
      "버전은": 9406,
      "버전의": 9407,
      "종교적": 9408,
      "내용은": 9409,
      "아인슈타인의": 9410,
      "작용하는": 9411,
      "크리스티": 9412,
      "애플리케이션": 9413,
      "히로부": 9414,
      "톨킨은": 9415,
      "여겨진다": 9416,
      "프란츠": 9417,
      "라부아지에": 9418,
      "둘러싸": 9419,
      "formes": 9420,
      "플랫폼": 9421,
      "(\"": 9422,
      "1호": 9423,
      "개칭": 9424,
      "검사": 9425,
      "고립": 9426,
      "국적": 9427,
      "남은": 9428,
      "내가": 9429,
      "내륙": 9430,
      "니시": 9431,
      "당에서": 9432,
      "대동": 9433,
      "대도시": 9434,
      "뒤를": 9435,
      "드니": 9436,
      "등도": 9437,
      "라덴": 9438,
      "로가": 9439,
      "롯데": 9440,
      "마의": 9441,
      "마침": 9442,
      "말해": 9443,
      "맞아": 9444,
      "면이": 9445,
      "면적": 9446,
      "모질": 9447,
      "무부": 9448,
      "문의": 9449,
      "보스": 9450,
      "사상을": 9451,
      "석유": 9452,
      "소거": 9453,
      "속도가": 9454,
      "수산": 9455,
      "신라": 9456,
      "실을": 9457,
      "아폴": 9458,
      "엔탈피": 9459,
      "여당": 9460,
      "영이": 9461,
      "오직": 9462,
      "우려": 9463,
      "우치": 9464,
      "위협": 9465,
      "의석": 9466,
      "이들을": 9467,
      "조차": 9468,
      "주관": 9469,
      "지능": 9470,
      "지향": 9471,
      "집회": 9472,
      "창작": 9473,
      "쿠라": 9474,
      "터미": 9475,
      "토스": 9476,
      "투수": 9477,
      "협의회": 9478,
      "희망": 9479,
      "힘이": 9480,
      "사용된": 9481,
      "사용하였다": 9482,
      "학자들은": 9483,
      "이라면": 9484,
      "주의와": 9485,
      "물리적": 9486,
      "포함하고": 9487,
      "이용할": 9488,
      "일반화": 9489,
      "1880년": 9490,
      "의원이": 9491,
      "1871년": 9492,
      "설립되었다": 9493,
      "있었는데": 9494,
      "물리학의": 9495,
      "파일을": 9496,
      "이르는": 9497,
      "스테이": 9498,
      "브루크너의": 9499,
      "단순히": 9500,
      "네이버": 9501,
      "라틴어": 9502,
      "테인먼트": 9503,
      "2만": 9504,
      "3차원": 9505,
      "For": 9506,
      "Qu": 9507,
      "Te": 9508,
      "ain": 9509,
      "〉,": 9510,
      "경에": 9511,
      "고양": 9512,
      "관에": 9513,
      "기획": 9514,
      "꺾고": 9515,
      "남한": 9516,
      "내고": 9517,
      "대우": 9518,
      "도중": 9519,
      "동계": 9520,
      "들고": 9521,
      "등식": 9522,
      "매일": 9523,
      "민중": 9524,
      "반박": 9525,
      "밝히": 9526,
      "보성": 9527,
      "복귀": 9528,
      "비로": 9529,
      "상으로": 9530,
      "소통": 9531,
      "손을": 9532,
      "수이다": 9533,
      "시사": 9534,
      "신설": 9535,
      "실종": 9536,
      "아오": 9537,
      "앙리": 9538,
      "앞에서": 9539,
      "엄청": 9540,
      "없어": 9541,
      "없으며": 9542,
      "여의도": 9543,
      "역임": 9544,
      "오류": 9545,
      "이끌어": 9546,
      "일종": 9547,
      "자금을": 9548,
      "재개": 9549,
      "전인": 9550,
      "제는": 9551,
      "주된": 9552,
      "지연": 9553,
      "집을": 9554,
      "컵라면": 9555,
      "프랜": 9556,
      "2001": 9557,
      "일본에": 9558,
      "일본이": 9559,
      "사이드": 9560,
      "기념하는": 9561,
      "부분이": 9562,
      "하나인": 9563,
      "음악을": 9564,
      "언어의": 9565,
      "현재까지": 9566,
      "1883년": 9567,
      "시키기": 9568,
      "이었으며": 9569,
      "윤보선의": 9570,
      "제작자": 9571,
      "사상가": 9572,
      "단체인": 9573,
      "바이올린": 9574,
      "행동을": 9575,
      "레오폴": 9576,
      "받았고": 9577,
      "대체로": 9578,
      "스코틀랜드의": 9579,
      "순교자": 9580,
      "4세": 9581,
      "700": 9582,
      "Cl": 9583,
      "DC": 9584,
      "Kore": 9585,
      "Se": 9586,
      "au": 9587,
      "back": 9588,
      "des": 9589,
      "ib": 9590,
      "ke": 9591,
      "ost": 9592,
      "ten": 9593,
      "것이라는": 9594,
      "급속": 9595,
      "길을": 9596,
      "레바": 9597,
      "로저": 9598,
      "로프": 9599,
      "무궁": 9600,
      "문에": 9601,
      "미치": 9602,
      "발현": 9603,
      "보나": 9604,
      "비서": 9605,
      "산시": 9606,
      "선과": 9607,
      "신사": 9608,
      "실현": 9609,
      "쓴다": 9610,
      "안익": 9611,
      "았으며": 9612,
      "얻었다": 9613,
      "었지만": 9614,
      "엘라": 9615,
      "연출": 9616,
      "완벽": 9617,
      "울릉": 9618,
      "월요일": 9619,
      "유카와": 9620,
      "일에": 9621,
      "작동": 9622,
      "장인": 9623,
      "장제": 9624,
      "재산": 9625,
      "참의원": 9626,
      "카리": 9627,
      "킨다": 9628,
      "평년": 9629,
      "해리": 9630,
      "형질": 9631,
      "화의": 9632,
      "하였다고": 9633,
      "되었다는": 9634,
      "미국을": 9635,
      "대통령을": 9636,
      "조선총독": 9637,
      "ener": 9638,
      "이후에도": 9639,
      "162": 9640,
      "정부와": 9641,
      "국가대표": 9642,
      "문화를": 9643,
      "148": 9644,
      "방송을": 9645,
      "전쟁에서": 9646,
      "이론은": 9647,
      "집합의": 9648,
      "프로그램의": 9649,
      "1878년": 9650,
      "기타리스트": 9651,
      "부르는": 9652,
      "1848년": 9653,
      "자료를": 9654,
      "상황에서": 9655,
      "어려운": 9656,
      "심리학자": 9657,
      "CPU": 9658,
      "International": 9659,
      "주파수": 9660,
      "스러운": 9661,
      "치어리더": 9662,
      "6번째": 9663,
      "DA": 9664,
      "La": 9665,
      "Man": 9666,
      "Sh": 9667,
      "Sp": 9668,
      "cy": 9669,
      "son": 9670,
      "ton": 9671,
      "감마": 9672,
      "개입": 9673,
      "구스타": 9674,
      "극좌표": 9675,
      "긍정": 9676,
      "김경": 9677,
      "김형": 9678,
      "농촌": 9679,
      "단독": 9680,
      "대대": 9681,
      "도미니": 9682,
      "랫동안": 9683,
      "련의": 9684,
      "로동": 9685,
      "로라": 9686,
      "면으로": 9687,
      "문이": 9688,
      "반지름": 9689,
      "밴드": 9690,
      "빨간": 9691,
      "사면": 9692,
      "상공": 9693,
      "숫자": 9694,
      "실용": 9695,
      "아스": 9696,
      "얻을": 9697,
      "역에서": 9698,
      "연기": 9699,
      "예로": 9700,
      "오랫동안": 9701,
      "우루": 9702,
      "위대한": 9703,
      "장려": 9704,
      "전도": 9705,
      "전형": 9706,
      "전류의": 9707,
      "정체": 9708,
      "중이다": 9709,
      "차를": 9710,
      "천군": 9711,
      "천만": 9712,
      "카에": 9713,
      "코미디": 9714,
      "테스트": 9715,
      "파악": 9716,
      "평안": 9717,
      "포도": 9718,
      "하우": 9719,
      "한정": 9720,
      "할아버지": 9721,
      "혼합": 9722,
      "하였지만": 9723,
      "프랑수아": 9724,
      "art": 9725,
      "국가보안": 9726,
      "사람을": 9727,
      "1일에": 9728,
      "중국에서": 9729,
      "140": 9730,
      "언어학자": 9731,
      "oft": 9732,
      "1886년": 9733,
      "의미가": 9734,
      "분야에": 9735,
      "지방의": 9736,
      "만들어졌다": 9737,
      "브리지": 9738,
      "다르게": 9739,
      "외국어": 9740,
      "지속적으로": 9741,
      "종료되었다": 9742,
      "아라파트는": 9743,
      "일으켰다": 9744,
      "뉴질랜드": 9745,
      "macOS": 9746,
      "유클리드": 9747,
      "쇼트트랙": 9748,
      "말레이시아": 9749,
      "5세": 9750,
      "92": 9751,
      "AK": 9752,
      "Lin": 9753,
      "Mat": 9754,
      "NE": 9755,
      "SD": 9756,
      "Tr": 9757,
      "W3": 9758,
      "from": 9759,
      "가이": 9760,
      "계수": 9761,
      "고기": 9762,
      "글루": 9763,
      "났고": 9764,
      "단은": 9765,
      "동시": 9766,
      "때부터": 9767,
      "라리": 9768,
      "락을": 9769,
      "리니": 9770,
      "릭터": 9771,
      "마틴": 9772,
      "먹는": 9773,
      "모하": 9774,
      "뮬레이": 9775,
      "바흐": 9776,
      "법의": 9777,
      "복사": 9778,
      "살해": 9779,
      "상관": 9780,
      "성인": 9781,
      "세상": 9782,
      "세키": 9783,
      "세웠다": 9784,
      "속하는": 9785,
      "쑨원은": 9786,
      "아침": 9787,
      "아돌프": 9788,
      "압도": 9789,
      "앞서": 9790,
      "앤드": 9791,
      "약칭": 9792,
      "었을": 9793,
      "원작": 9794,
      "응답": 9795,
      "점과": 9796,
      "제자": 9797,
      "조르": 9798,
      "차량": 9799,
      "책임을": 9800,
      "체첸": 9801,
      "침을": 9802,
      "컬럼": 9803,
      "크기를": 9804,
      "탄소": 9805,
      "테일러": 9806,
      "포지": 9807,
      "플러": 9808,
      "한때": 9809,
      "한번": 9810,
      "한총련": 9811,
      "호남": 9812,
      "2002": 9813,
      "2012": 9814,
      "주의적": 9815,
      "라이버": 9816,
      "국가가": 9817,
      "사건에": 9818,
      "147": 9819,
      "14대": 9820,
      "음악의": 9821,
      "발생하여": 9822,
      "선거에": 9823,
      "lect": 9824,
      "관계에": 9825,
      "시스코": 9826,
      "유럽에서": 9827,
      "관련이": 9828,
      "집합을": 9829,
      "act": 9830,
      "1867년": 9831,
      "1868년": 9832,
      "기록했다": 9833,
      "제1회": 9834,
      "상태로": 9835,
      "상태에": 9836,
      "민족의": 9837,
      "내용이": 9838,
      "2세가": 9839,
      "스티브": 9840,
      "요소를": 9841,
      "반응을": 9842,
      "떨어진": 9843,
      "육상선수": 9844,
      "Science": 9845,
      "게르만": 9846,
      "심각한": 9847,
      "엘리자베스": 9848,
      "엔터테인먼트": 9849,
      "52": 9850,
      "PP": 9851,
      "ak": 9852,
      "〉(": 9853,
      "각기": 9854,
      "국으로": 9855,
      "기에서": 9856,
      "김기": 9857,
      "대량": 9858,
      "도심": 9859,
      "동해": 9860,
      "력에": 9861,
      "리안": 9862,
      "마디": 9863,
      "마쓰": 9864,
      "메일": 9865,
      "모차": 9866,
      "목회": 9867,
      "무조건": 9868,
      "백인": 9869,
      "보자": 9870,
      "보편": 9871,
      "비스타": 9872,
      "아야": 9873,
      "안창": 9874,
      "역설": 9875,
      "입증": 9876,
      "있으므로": 9877,
      "적외선": 9878,
      "전까지": 9879,
      "종족": 9880,
      "주시": 9881,
      "지위": 9882,
      "침략": 9883,
      "커다": 9884,
      "테오": 9885,
      "특성을": 9886,
      "한미": 9887,
      "한민당": 9888,
      "혁신": 9889,
      "환원": 9890,
      "에서만": 9891,
      "2009": 9892,
      "세계적인": 9893,
      "독립하다": 9894,
      "사회에": 9895,
      "영국에서": 9896,
      "회의를": 9897,
      "139": 9898,
      "지원이": 9899,
      "함수가": 9900,
      "작품의": 9901,
      "문학상": 9902,
      "정보통신": 9903,
      "관련하여": 9904,
      "집합이다": 9905,
      "대부분을": 9906,
      "발견한": 9907,
      "중앙정보": 9908,
      "하이퍼": 9909,
      "의미하는": 9910,
      "결합을": 9911,
      "최근에는": 9912,
      "프란시스코": 9913,
      "다윈은": 9914,
      "보유하고": 9915,
      "안익태": 9916,
      "87": 9917,
      "Go": 9918,
      "LG": 9919,
      "SQ": 9920,
      "UI": 9921,
      "kg": 9922,
      "phy": 9923,
      "su": 9924,
      "감각": 9925,
      "강경": 9926,
      "경북": 9927,
      "경비": 9928,
      "관학교": 9929,
      "국교": 9930,
      "국군": 9931,
      "군으로": 9932,
      "극복": 9933,
      "김수": 9934,
      "끝났다": 9935,
      "내지": 9936,
      "내렸다": 9937,
      "니체의": 9938,
      "대입": 9939,
      "도킨": 9940,
      "동산": 9941,
      "되거나": 9942,
      "로나": 9943,
      "론과": 9944,
      "박영": 9945,
      "부에서": 9946,
      "빅토르": 9947,
      "상위": 9948,
      "선호": 9949,
      "속도를": 9950,
      "수감": 9951,
      "순천": 9952,
      "술을": 9953,
      "스에": 9954,
      "신조": 9955,
      "심한": 9956,
      "양궁": 9957,
      "와서": 9958,
      "원조": 9959,
      "유고": 9960,
      "이데": 9961,
      "일로": 9962,
      "일련의": 9963,
      "적어도": 9964,
      "전선": 9965,
      "접한": 9966,
      "제르": 9967,
      "조카": 9968,
      "조형": 9969,
      "주지": 9970,
      "처형": 9971,
      "캐릭터": 9972,
      "컨트": 9973,
      "크롬": 9974,
      "타입": 9975,
      "타자": 9976,
      "타자가": 9977,
      "투신": 9978,
      "트와": 9979,
      "페루": 9980,
      "포맷": 9981,
      "포스": 9982,
      "헬륨": 9983,
      "혁명이": 9984,
      "1819년": 9985,
      "사용하지": 9986,
      "다음은": 9987,
      "다음이": 9988,
      "127": 9989,
      "시작하다": 9990,
      "그러므로": 9991,
      "것이며": 9992,
      "발생해": 9993,
      "역사상": 9994,
      "로마의": 9995,
      "기술의": 9996,
      "교육인": 9997,
      "교육자": 9998,
      "표현을": 9999,
      "표현할": 10000,
      "영향으로": 10001,
      "마이크로소프트는": 10002,
      "위원회가": 10003,
      "분야이다": 10004,
      "이었으나": 10005,
      "인간이": 10006,
      "평가를": 10007,
      "설명하는": 10008,
      "100만": 10009,
      "PC통신": 10010,
      "김성수": 10011,
      "데이터를": 10012,
      "이르러": 10013,
      "이르기까지": 10014,
      "달러를": 10015,
      "조약을": 10016,
      "받았으며": 10017,
      "수준의": 10018,
      "움직임": 10019,
      "오일러는": 10020,
      "간단히": 10021,
      "알렉산더": 10022,
      "스칼라곱": 10023,
      "www": 10024,
      "경향이": 10025,
      "초등학교": 10026,
      "크리스토퍼": 10027,
      "잃어버린": 10028,
      "3개": 10029,
      "51": 10030,
      "54": 10031,
      "5번째": 10032,
      "AR": 10033,
      "Ex": 10034,
      "ction": 10035,
      "cri": 10036,
      "ix": 10037,
      "ier": 10038,
      "web": 10039,
      "간첩": 10040,
      "개교": 10041,
      "개성": 10042,
      "경선": 10043,
      "고구": 10044,
      "공과": 10045,
      "관은": 10046,
      "관할": 10047,
      "구동": 10048,
      "구에서": 10049,
      "극히": 10050,
      "내적": 10051,
      "내셔널": 10052,
      "니의": 10053,
      "도모": 10054,
      "도에서": 10055,
      "레나": 10056,
      "레인": 10057,
      "론자": 10058,
      "발간": 10059,
      "변화가": 10060,
      "보건": 10061,
      "보드": 10062,
      "봉산": 10063,
      "비에": 10064,
      "속의": 10065,
      "수송": 10066,
      "스미스": 10067,
      "시카": 10068,
      "쓰기": 10069,
      "아쿠": 10070,
      "애덤": 10071,
      "업무": 10072,
      "이광": 10073,
      "이병": 10074,
      "이진": 10075,
      "일차": 10076,
      "일요일": 10077,
      "입당": 10078,
      "자매": 10079,
      "전과": 10080,
      "증을": 10081,
      "지칭": 10082,
      "진입": 10083,
      "질병": 10084,
      "촉진": 10085,
      "추천": 10086,
      "칸토": 10087,
      "팀의": 10088,
      "한스": 10089,
      "해는": 10090,
      "해진": 10091,
      "헌정": 10092,
      "헤드": 10093,
      "호르": 10094,
      "호텔": 10095,
      "화는": 10096,
      "주의에": 10097,
      "서울시": 10098,
      "ite": 10099,
      "선거가": 10100,
      "인터뷰": 10101,
      "작품이": 10102,
      "주장하는": 10103,
      "관련자": 10104,
      "일부는": 10105,
      "구성하는": 10106,
      "unt": 10107,
      "제국이": 10108,
      "1870년": 10109,
      "알려졌다": 10110,
      "이루어진다": 10111,
      "민주당의": 10112,
      "조선민주주의인민공화국이": 10113,
      "개념은": 10114,
      "차지하는": 10115,
      "전투가": 10116,
      "필요하다": 10117,
      "페르디": 10118,
      "페르시아": 10119,
      "이야기를": 10120,
      "애플의": 10121,
      "able": 10122,
      "지나지": 10123,
      "────": 10124,
      "하겠다고": 10125,
      "슬로베니아": 10126,
      "모질라": 10127,
      "800": 10128,
      "93": 10129,
      "Bo": 10130,
      "GB": 10131,
      "NC": 10132,
      "ck": 10133,
      "vel": 10134,
      "||": 10135,
      "가루": 10136,
      "가시": 10137,
      "개관": 10138,
      "계약": 10139,
      "고이즈": 10140,
      "구미": 10141,
      "글리": 10142,
      "노트": 10143,
      "눈에": 10144,
      "대원": 10145,
      "델브로": 10146,
      "동경": 10147,
      "때에": 10148,
      "령을": 10149,
      "로즈": 10150,
      "르키": 10151,
      "명시": 10152,
      "무신": 10153,
      "미하일": 10154,
      "비평가": 10155,
      "비서관": 10156,
      "사립": 10157,
      "삭제": 10158,
      "선진": 10159,
      "섰다": 10160,
      "소수의": 10161,
      "슬롯": 10162,
      "신당": 10163,
      "아날": 10164,
      "아는": 10165,
      "앞에": 10166,
      "에우": 10167,
      "역도": 10168,
      "연쇄": 10169,
      "연예": 10170,
      "예산": 10171,
      "온다": 10172,
      "완공": 10173,
      "요제프": 10174,
      "음반": 10175,
      "이외의": 10176,
      "잡고": 10177,
      "장남": 10178,
      "제대로": 10179,
      "조종": 10180,
      "조화": 10181,
      "주류": 10182,
      "주요한": 10183,
      "직업": 10184,
      "추석": 10185,
      "쿨롱": 10186,
      "티브": 10187,
      "티베트": 10188,
      "파라": 10189,
      "포털": 10190,
      "합작": 10191,
      "핵무기": 10192,
      "호세": 10193,
      "화성의": 10194,
      "휴대": 10195,
      "대한항공": 10196,
      "라이온": 10197,
      "시작되다": 10198,
      "ale": 10199,
      "공화국이": 10200,
      "정의는": 10201,
      "역사적": 10202,
      "지원한다": 10203,
      "주장이": 10204,
      "구조는": 10205,
      "수상했다": 10206,
      "상태를": 10207,
      "혁명가": 10208,
      "조사에서": 10209,
      "1804년": 10210,
      "사고로": 10211,
      "1844년": 10212,
      "물질을": 10213,
      "만든다": 10214,
      "체계를": 10215,
      "비전향": 10216,
      "체코슬로바키": 10217,
      "밝혀졌다": 10218,
      "장기수": 10219,
      "해상도": 10220,
      "헤르만": 10221,
      "지니고": 10222,
      "핀란드의": 10223,
      "염기서열": 10224,
      "아리스토텔레": 10225,
      "스럽게": 10226,
      "마케도": 10227,
      "(?~)": 10228,
      "모차르트": 10229,
      "(:": 10230,
      "4개의": 10231,
      "50년": 10232,
      "AB": 10233,
      "EC": 10234,
      "MA": 10235,
      "MP": 10236,
      "ach": 10237,
      "lin": 10238,
      "ne": 10239,
      "ser": 10240,
      "가결": 10241,
      "가산": 10242,
      "개요": 10243,
      "게시": 10244,
      "계급": 10245,
      "계와": 10246,
      "공학자": 10247,
      "권도": 10248,
      "김원": 10249,
      "나르": 10250,
      "나이지": 10251,
      "달에": 10252,
      "대중화": 10253,
      "동로마": 10254,
      "되게": 10255,
      "들여": 10256,
      "로니": 10257,
      "리어": 10258,
      "리치": 10259,
      "마약": 10260,
      "말의": 10261,
      "미키": 10262,
      "밖의": 10263,
      "발굴": 10264,
      "발트": 10265,
      "방직": 10266,
      "버드": 10267,
      "볼프": 10268,
      "비록": 10269,
      "서방": 10270,
      "세인트": 10271,
      "셋째": 10272,
      "소리를": 10273,
      "슈뢰": 10274,
      "시나": 10275,
      "시에서": 10276,
      "신민당": 10277,
      "심의": 10278,
      "쓰여": 10279,
      "쓰이고": 10280,
      "아베": 10281,
      "아이스": 10282,
      "안으로": 10283,
      "어디": 10284,
      "에티": 10285,
      "오에": 10286,
      "유희": 10287,
      "윤영": 10288,
      "이닝": 10289,
      "이범": 10290,
      "이태": 10291,
      "이들이": 10292,
      "인코딩": 10293,
      "자리에": 10294,
      "저녁": 10295,
      "전체의": 10296,
      "제주도": 10297,
      "종이": 10298,
      "중동": 10299,
      "지점": 10300,
      "최대의": 10301,
      "친박": 10302,
      "컴파일": 10303,
      "케네": 10304,
      "콩고": 10305,
      "쿠스": 10306,
      "크다": 10307,
      "키케": 10308,
      "퇴임": 10309,
      "파생": 10310,
      "편지를": 10311,
      "풍속": 10312,
      "하에서": 10313,
      "행복": 10314,
      "호로": 10315,
      "화물": 10316,
      "화한": 10317,
      "황해": 10318,
      "209": 10319,
      "하였던": 10320,
      "2014": 10321,
      "1950년대": 10322,
      "128": 10323,
      "enti": 10324,
      "시작으로": 10325,
      "사람들": 10326,
      "146": 10327,
      "대표가": 10328,
      "컴퓨터가": 10329,
      "att": 10330,
      "이어서": 10331,
      "발표된": 10332,
      "기업가": 10333,
      "대학에서": 10334,
      "이론에": 10335,
      "존재할": 10336,
      "영향력을": 10337,
      "발견된": 10338,
      "edia": 10339,
      "있었지만": 10340,
      "초기에는": 10341,
      "선형대수학": 10342,
      "유리수": 10343,
      "지금까지": 10344,
      "프로그래머": 10345,
      "경상남도": 10346,
      "주년을": 10347,
      "베네수": 10348,
      "떡볶이": 10349,
      "안토니오": 10350,
      "수필가": 10351,
      "7대": 10352,
      "EX": 10353,
      "cel": 10354,
      "iformes": 10355,
      "ml": 10356,
      "ym": 10357,
      "’(": 10358,
      "’,": 10359,
      "개로": 10360,
      "겐지": 10361,
      "과목": 10362,
      "교체": 10363,
      "구제": 10364,
      "금강": 10365,
      "남겼다": 10366,
      "대법": 10367,
      "레닌": 10368,
      "리기": 10369,
      "마누": 10370,
      "몬테": 10371,
      "무효": 10372,
      "박종": 10373,
      "법으로": 10374,
      "베타": 10375,
      "변이": 10376,
      "빠져": 10377,
      "사과": 10378,
      "생을": 10379,
      "선교": 10380,
      "수열": 10381,
      "스톨": 10382,
      "신부": 10383,
      "심지어": 10384,
      "악의": 10385,
      "악인": 10386,
      "여명이": 10387,
      "왕실": 10388,
      "왜냐": 10389,
      "율리우스": 10390,
      "의거": 10391,
      "이산": 10392,
      "자바": 10393,
      "자전": 10394,
      "자키": 10395,
      "절반": 10396,
      "정이": 10397,
      "제10": 10398,
      "조는": 10399,
      "지은": 10400,
      "직에서": 10401,
      "참패": 10402,
      "처벌": 10403,
      "첫째": 10404,
      "초연": 10405,
      "추구": 10406,
      "타나": 10407,
      "타지": 10408,
      "태스크": 10409,
      "터스": 10410,
      "텐츠": 10411,
      "팀은": 10412,
      "프의": 10413,
      "한반": 10414,
      "항목": 10415,
      "형식을": 10416,
      "화이트": 10417,
      "후안": 10418,
      "후에는": 10419,
      "203": 10420,
      "세계에": 10421,
      "시작된": 10422,
      "부분은": 10423,
      "iction": 10424,
      "위원회의": 10425,
      "방송이": 10426,
      "자유를": 10427,
      "이용하는": 10428,
      "이름의": 10429,
      "함수이다": 10430,
      "정책이": 10431,
      "기본적으로": 10432,
      "1857년": 10433,
      "에너지가": 10434,
      "1세가": 10435,
      "전문가": 10436,
      "가톨릭교회": 10437,
      "유래한": 10438,
      "그녀의": 10439,
      "tics": 10440,
      "angu": 10441,
      "Paul": 10442,
      "전라남도": 10443,
      "루마니아의": 10444,
      "마르크스": 10445,
      "KTX": 10446,
      "콘스탄티": 10447,
      "W3C": 10448,
      "SQL": 10449,
      "슈뢰딩": 10450,
      "84": 10451,
      "Ad": 10452,
      "At": 10453,
      "BI": 10454,
      "Bas": 10455,
      "History": 10456,
      "Me": 10457,
      "Or": 10458,
      "ah": 10459,
      "ade": 10460,
      "fe": 10461,
      "les": 10462,
      "stit": 10463,
      "가을": 10464,
      "갈등이": 10465,
      "강하게": 10466,
      "개봉": 10467,
      "개인의": 10468,
      "결승": 10469,
      "공로": 10470,
      "공헌": 10471,
      "구심": 10472,
      "권고": 10473,
      "나아가": 10474,
      "네티": 10475,
      "대변": 10476,
      "대비": 10477,
      "도마": 10478,
      "로빈": 10479,
      "리우": 10480,
      "말라": 10481,
      "무슬": 10482,
      "바깥": 10483,
      "배드": 10484,
      "백과의": 10485,
      "분이": 10486,
      "비상": 10487,
      "비평": 10488,
      "사원": 10489,
      "섬을": 10490,
      "세한": 10491,
      "스핀": 10492,
      "신자": 10493,
      "알베르트": 10494,
      "압축": 10495,
      "애국": 10496,
      "애나": 10497,
      "어묵": 10498,
      "어족": 10499,
      "옥스": 10500,
      "우호": 10501,
      "유입": 10502,
      "음모": 10503,
      "이곳": 10504,
      "이북": 10505,
      "이익": 10506,
      "인디": 10507,
      "인문": 10508,
      "인들의": 10509,
      "일원": 10510,
      "자문": 10511,
      "자선": 10512,
      "적합": 10513,
      "전동": 10514,
      "전설": 10515,
      "전지": 10516,
      "지면": 10517,
      "지형": 10518,
      "초청": 10519,
      "취득": 10520,
      "콜라": 10521,
      "크가": 10522,
      "태국의": 10523,
      "판문": 10524,
      "포럼": 10525,
      "학위를": 10526,
      "호흡": 10527,
      "208": 10528,
      "1820년": 10529,
      "17세기": 10530,
      "ans": 10531,
      "사람들의": 10532,
      "정의된다": 10533,
      "나라를": 10534,
      "발표하다": 10535,
      "작품으로": 10536,
      "기술이": 10537,
      "주장한다": 10538,
      "1869년": 10539,
      "과정에": 10540,
      "종교의": 10541,
      "윤보선이": 10542,
      "헌법에": 10543,
      "기반의": 10544,
      "계속해서": 10545,
      "케이블": 10546,
      "경기에서": 10547,
      "차지한다": 10548,
      "공동체": 10549,
      "가와바타": 10550,
      "찾아서": 10551,
      "보여준다": 10552,
      "김정은": 10553,
      "학문이다": 10554,
      "안중근은": 10555,
      "톨킨의": 10556,
      "그레이트": 10557,
      "살아있는": 10558,
      "일제강점기의": 10559,
      "달성하였다": 10560,
      "그렇지": 10561,
      "바뀌었다": 10562,
      "케냐의": 10563,
      "1인당": 10564,
      "잘못된": 10565,
      "루마니아": 10566,
      "프랭클린": 10567,
      "캠퍼스": 10568,
      "추기경": 10569,
      "ground": 10570,
      "엄청난": 10571,
      "무궁화": 10572,
      "우루과": 10573,
      "무슬림": 10574,
      "1루": 10575,
      "320": 10576,
      "7번째": 10577,
      "IRA": 10578,
      "Pub": 10579,
      "TE": 10580,
      "UR": 10581,
      "York": 10582,
      "font": 10583,
      "kr": 10584,
      "land": 10585,
      "ps": 10586,
      "가닥": 10587,
      "갖게": 10588,
      "계기가": 10589,
      "고통": 10590,
      "구름": 10591,
      "군벌": 10592,
      "권과": 10593,
      "권에": 10594,
      "권으로": 10595,
      "기기": 10596,
      "김주": 10597,
      "나리": 10598,
      "노바": 10599,
      "대영": 10600,
      "대주교": 10601,
      "더스": 10602,
      "도달": 10603,
      "동남": 10604,
      "동방": 10605,
      "되던": 10606,
      "드라이브": 10607,
      "득표": 10608,
      "루돌프": 10609,
      "말하는": 10610,
      "망을": 10611,
      "맞춤": 10612,
      "무너": 10613,
      "문재": 10614,
      "바위": 10615,
      "배음": 10616,
      "배터리": 10617,
      "베어": 10618,
      "변을": 10619,
      "분단": 10620,
      "뿐이다": 10621,
      "사자": 10622,
      "서정": 10623,
      "성서": 10624,
      "세력이": 10625,
      "솔로": 10626,
      "열대": 10627,
      "용어를": 10628,
      "운반": 10629,
      "위기": 10630,
      "음으로": 10631,
      "의결": 10632,
      "이원": 10633,
      "일간": 10634,
      "입장": 10635,
      "잇는": 10636,
      "재배": 10637,
      "적금": 10638,
      "정에": 10639,
      "정교회": 10640,
      "제타": 10641,
      "조가": 10642,
      "주인공": 10643,
      "즈키": 10644,
      "지식을": 10645,
      "참전": 10646,
      "최다": 10647,
      "측은": 10648,
      "킬로": 10649,
      "파나": 10650,
      "파를": 10651,
      "파르트": 10652,
      "편성": 10653,
      "편을": 10654,
      "포드": 10655,
      "필립": 10656,
      "하얼": 10657,
      "핸드": 10658,
      "회견": 10659,
      "1818년": 10660,
      "1년에": 10661,
      "one": 10662,
      "민주연합": 10663,
      "서울의": 10664,
      "144": 10665,
      "사회를": 10666,
      "영국으로부터": 10667,
      "개발자": 10668,
      "기록을": 10669,
      "수학의": 10670,
      "1877년": 10671,
      "위치에": 10672,
      "게임을": 10673,
      "위원회는": 10674,
      "법칙에": 10675,
      "위키백과의": 10676,
      "행정구역": 10677,
      "규모의": 10678,
      "형식으로": 10679,
      "전문학교": 10680,
      "특징을": 10681,
      "김정일": 10682,
      "que": 10683,
      "양자역학의": 10684,
      "효과를": 10685,
      "dition": 10686,
      "친일파": 10687,
      "얼마나": 10688,
      "코프스키": 10689,
      "원주율": 10690,
      "열린우리당": 10691,
      "전라북도": 10692,
      "뛰어난": 10693,
      "오디세우스": 10694,
      "주니어": 10695,
      "펩타이드": 10696,
      "background": 10697,
      "아날로그": 10698,
      "왜냐하면": 10699,
      "1로": 10700,
      "16년": 10701,
      "9번째": 10702,
      "Bl": 10703,
      "Tur": 10704,
      "UT": 10705,
      "Wh": 10706,
      "bor": 10707,
      "ple": 10708,
      "we": 10709,
      "강을": 10710,
      "거대": 10711,
      "거치": 10712,
      "격투": 10713,
      "곁사슬": 10714,
      "고무": 10715,
      "곡선": 10716,
      "공중": 10717,
      "관점에서": 10718,
      "글자": 10719,
      "남극": 10720,
      "넣어": 10721,
      "는지": 10722,
      "니츠": 10723,
      "대니": 10724,
      "대북": 10725,
      "도이다": 10726,
      "라플라스": 10727,
      "리듬": 10728,
      "리언": 10729,
      "마키": 10730,
      "막부": 10731,
      "메드": 10732,
      "멘델": 10733,
      "면의": 10734,
      "문자를": 10735,
      "민턴": 10736,
      "바오로": 10737,
      "방을": 10738,
      "법적": 10739,
      "벗어나": 10740,
      "변수": 10741,
      "보니": 10742,
      "복합": 10743,
      "부패": 10744,
      "부상당": 10745,
      "불가능": 10746,
      "붉은": 10747,
      "비스": 10748,
      "빅토": 10749,
      "세력을": 10750,
      "션을": 10751,
      "소와": 10752,
      "수인": 10753,
      "수훈": 10754,
      "스승": 10755,
      "시내": 10756,
      "씨가": 10757,
      "아데": 10758,
      "알카에": 10759,
      "얻는": 10760,
      "열역학": 10761,
      "영구": 10762,
      "왔으며": 10763,
      "유형": 10764,
      "일관": 10765,
      "일단": 10766,
      "일컫": 10767,
      "입었다": 10768,
      "자발": 10769,
      "잠시": 10770,
      "재직": 10771,
      "전술": 10772,
      "정전": 10773,
      "제네": 10774,
      "주체": 10775,
      "지인": 10776,
      "차기": 10777,
      "창업": 10778,
      "치의": 10779,
      "코르": 10780,
      "코리아": 10781,
      "크기가": 10782,
      "테레": 10783,
      "포괄": 10784,
      "플루": 10785,
      "피어": 10786,
      "합동": 10787,
      "항쟁": 10788,
      "해밀": 10789,
      "해설": 10790,
      "현악": 10791,
      "흑적금": 10792,
      "힌다": 10793,
      "2011": 10794,
      "사용을": 10795,
      "세계를": 10796,
      "시작했고": 10797,
      "연구는": 10798,
      "문화적": 10799,
      "서울에서": 10800,
      "지역으로": 10801,
      "컴퓨터에": 10802,
      "역사를": 10803,
      "문학의": 10804,
      "공간에": 10805,
      "표현의": 10806,
      "활동에": 10807,
      "영어를": 10808,
      "처음에는": 10809,
      "현대그룹": 10810,
      "로서는": 10811,
      "000여": 10812,
      "게임이": 10813,
      "상태가": 10814,
      "스크립": 10815,
      "설명할": 10816,
      "1809년": 10817,
      "실제로는": 10818,
      "마지막으로": 10819,
      "남북전쟁": 10820,
      "1837년": 10821,
      "필요가": 10822,
      "트로트": 10823,
      "정권의": 10824,
      "정권이": 10825,
      "돌아왔다": 10826,
      "평화상": 10827,
      "ogra": 10828,
      "안중근의": 10829,
      "이치로": 10830,
      "알렉산드르": 10831,
      "공휴일이": 10832,
      "국경일": 10833,
      "다니엘": 10834,
      "https": 10835,
      "무선통신": 10836,
      "크로아티아의": 10837,
      "English": 10838,
      "American": 10839,
      "마침내": 10840,
      "도미니카": 10841,
      "코미디언": 10842,
      "커다란": 10843,
      "고이즈미": 10844,
      "배드민턴": 10845,
      "3번": 10846,
      "62": 10847,
      ":#": 10848,
      "Be": 10849,
      "BBC": 10850,
      "CO": 10851,
      "Ir": 10852,
      "Li": 10853,
      "az": 10854,
      "ble": 10855,
      "b0e": 10856,
      "gen": 10857,
      "out": 10858,
      "ru": 10859,
      "soft": 10860,
      "ution": 10861,
      "with": 10862,
      "가고": 10863,
      "가타카": 10864,
      "간접": 10865,
      "갈릴": 10866,
      "감시": 10867,
      "개를": 10868,
      "격파": 10869,
      "결론": 10870,
      "고쿠": 10871,
      "곡을": 10872,
      "공기": 10873,
      "구할": 10874,
      "그중": 10875,
      "그들이": 10876,
      "기금": 10877,
      "긴다": 10878,
      "김규": 10879,
      "나라는": 10880,
      "놀라": 10881,
      "대만": 10882,
      "댓글": 10883,
      "도라": 10884,
      "두께": 10885,
      "드라이버": 10886,
      "디드": 10887,
      "디즈": 10888,
      "리투": 10889,
      "마츠": 10890,
      "마치고": 10891,
      "말할": 10892,
      "명이다": 10893,
      "문희": 10894,
      "미시": 10895,
      "바나": 10896,
      "박성": 10897,
      "받기": 10898,
      "받기도": 10899,
      "버러": 10900,
      "보를": 10901,
      "보내는": 10902,
      "부장": 10903,
      "비타": 10904,
      "사설": 10905,
      "살렘": 10906,
      "새벽": 10907,
      "소위": 10908,
      "소에서": 10909,
      "식에서": 10910,
      "신체": 10911,
      "써서": 10912,
      "아버": 10913,
      "않으면": 10914,
      "알베르": 10915,
      "양이": 10916,
      "업그레이": 10917,
      "여야": 10918,
      "연루": 10919,
      "열리다": 10920,
      "오케": 10921,
      "왕의": 10922,
      "외무": 10923,
      "우회": 10924,
      "위와": 10925,
      "잠수": 10926,
      "장조": 10927,
      "저격": 10928,
      "전원": 10929,
      "정동": 10930,
      "중일": 10931,
      "지기도": 10932,
      "챔피": 10933,
      "촛불": 10934,
      "촬영": 10935,
      "추세": 10936,
      "침몰": 10937,
      "크레": 10938,
      "크기의": 10939,
      "탁구": 10940,
      "토지": 10941,
      "통화": 10942,
      "폐쇄": 10943,
      "플레": 10944,
      "합당": 10945,
      "해운": 10946,
      "행위를": 10947,
      "현의": 10948,
      "힘의": 10949,
      "하기를": 10950,
      "한국철도": 10951,
      "영화제": 10952,
      "ick": 10953,
      "3월에": 10954,
      "컴퓨터는": 10955,
      "대학생": 10956,
      "대학원": 10957,
      "제2대": 10958,
      "표현하는": 10959,
      "구성된다": 10960,
      "대부분이": 10961,
      "소프트웨어의": 10962,
      "마이크로소프트의": 10963,
      "자연과학": 10964,
      "버전을": 10965,
      "출시된": 10966,
      "군사정변": 10967,
      "원자핵": 10968,
      "기반한": 10969,
      "선언을": 10970,
      "대중적인": 10971,
      "타이거": 10972,
      "조지프": 10973,
      "국회에서": 10974,
      "프레임": 10975,
      "size": 10976,
      "명칭은": 10977,
      "정확히": 10978,
      "가까이": 10979,
      "후반에": 10980,
      "플라톤의": 10981,
      "프린터": 10982,
      "김일성": 10983,
      "프루스트는": 10984,
      "0e6": 10985,
      "카프카": 10986,
      "John": 10987,
      "아폴로": 10988,
      "프랜시스": 10989,
      "AKIRA": 10990,
      "시카고": 10991,
      "페르디난": 10992,
      "anguage": 10993,
      "b0e0e6": 10994,
      "1TV": 10995,
      "74": 10996,
      "85": 10997,
      "94": 10998,
      "Die": 10999,
      "PE": 11000,
      "du": 11001,
      "ware": 11002,
      "건립": 11003,
      "고지": 11004,
      "관습": 11005,
      "교회의": 11006,
      "구는": 11007,
      "구자": 11008,
      "권력을": 11009,
      "김윤": 11010,
      "나지": 11011,
      "날을": 11012,
      "다소": 11013,
      "다나카": 11014,
      "단편": 11015,
      "단어를": 11016,
      "당내": 11017,
      "대단": 11018,
      "동북": 11019,
      "러브": 11020,
      "럴드": 11021,
      "루아": 11022,
      "리트": 11023,
      "리학자": 11024,
      "리비아": 11025,
      "막을": 11026,
      "말았다": 11027,
      "무사": 11028,
      "무용": 11029,
      "문신": 11030,
      "물체가": 11031,
      "미셸": 11032,
      "방사": 11033,
      "방해": 11034,
      "백작": 11035,
      "법학자": 11036,
      "복음": 11037,
      "부친": 11038,
      "산과": 11039,
      "삽입": 11040,
      "선발": 11041,
      "속한": 11042,
      "수성": 11043,
      "수밖에": 11044,
      "시드니": 11045,
      "식과": 11046,
      "심사": 11047,
      "안내": 11048,
      "안드레": 11049,
      "암호": 11050,
      "양은": 11051,
      "없었고": 11052,
      "엑스": 11053,
      "역에": 11054,
      "열렸다": 11055,
      "예외": 11056,
      "오세": 11057,
      "왔고": 11058,
      "용은": 11059,
      "우익": 11060,
      "이번": 11061,
      "일대": 11062,
      "장편": 11063,
[...]
